// Auto-generated from C:\1_A-Z Classwork\SEM3\EDI\tinyml_esp\tinyml-esp32-project\models_export\model_exit1_int8.tflite
#include <cstdint>

const unsigned char g_model_exit1_int8[] = {
  28,0,0,0,84,70,76,51,20,0,32,0,28,0,24,0,20,0,16,0,
  12,0,0,0,8,0,4,0,20,0,0,0,28,0,0,0,148,0,0,0,
  236,0,0,0,108,11,0,0,124,11,0,0,196,32,0,0,3,0,0,0,
  1,0,0,0,16,0,0,0,0,0,10,0,16,0,12,0,8,0,4,0,
  10,0,0,0,12,0,0,0,28,0,0,0,64,0,0,0,15,0,0,0,
  115,101,114,118,105,110,103,95,100,101,102,97,117,108,116,0,1,0,0,0,
  4,0,0,0,148,255,255,255,20,0,0,0,4,0,0,0,12,0,0,0,
  101,120,105,116,49,95,111,117,116,112,117,116,0,0,0,0,1,0,0,0,
  4,0,0,0,122,244,255,255,4,0,0,0,7,0,0,0,105,110,112,117,
  116,95,49,0,2,0,0,0,52,0,0,0,4,0,0,0,220,255,255,255,
  23,0,0,0,4,0,0,0,19,0,0,0,67,79,78,86,69,82,83,73,
  79,78,95,77,69,84,65,68,65,84,65,0,8,0,12,0,8,0,4,0,
  8,0,0,0,22,0,0,0,4,0,0,0,19,0,0,0,109,105,110,95,
  114,117,110,116,105,109,101,95,118,101,114,115,105,111,110,0,24,0,0,0,
  124,10,0,0,116,10,0,0,92,10,0,0,68,10,0,0,244,9,0,0,
  100,9,0,0,84,5,0,0,196,4,0,0,180,2,0,0,100,2,0,0,
  196,1,0,0,116,1,0,0,212,0,0,0,204,0,0,0,196,0,0,0,
  188,0,0,0,180,0,0,0,172,0,0,0,164,0,0,0,156,0,0,0,
  148,0,0,0,140,0,0,0,108,0,0,0,4,0,0,0,78,245,255,255,
  4,0,0,0,88,0,0,0,12,0,0,0,8,0,14,0,8,0,4,0,
  8,0,0,0,16,0,0,0,40,0,0,0,0,0,6,0,8,0,4,0,
  6,0,0,0,4,0,0,0,1,0,0,0,235,3,0,0,0,0,10,0,
  16,0,12,0,8,0,4,0,10,0,0,0,2,0,0,0,2,0,0,0,
  4,0,0,0,6,0,0,0,50,46,49,48,46,48,0,0,178,245,255,255,
  4,0,0,0,16,0,0,0,49,46,49,52,46,48,0,0,0,0,0,0,
  0,0,0,0,0,226,255,255,4,226,255,255,8,226,255,255,12,226,255,255,
  16,226,255,255,20,226,255,255,24,226,255,255,28,226,255,255,32,226,255,255,
  242,245,255,255,4,0,0,0,144,0,0,0,192,0,150,129,0,74,189,42,
  67,97,81,127,0,64,0,124,0,0,75,0,132,0,54,184,127,0,49,188,
  203,0,64,0,0,52,129,199,116,200,94,0,127,60,77,184,70,127,54,100,
  209,113,117,95,118,99,0,59,127,180,192,94,156,145,181,118,161,147,97,181,
  0,0,129,78,0,186,0,215,0,127,0,162,69,129,126,122,63,48,48,150,
  73,93,158,127,155,147,0,0,97,0,189,75,205,117,77,55,60,67,111,127,
  127,0,0,46,86,66,43,53,48,127,0,0,55,119,0,167,0,73,143,17,
  40,129,35,0,139,51,0,129,116,0,0,0,182,93,0,185,142,246,255,255,
  4,0,0,0,64,0,0,0,143,67,0,0,55,214,255,255,55,33,0,0,
  138,68,0,0,162,219,255,255,244,215,255,255,59,235,255,255,151,62,0,0,
  135,50,0,0,65,248,255,255,181,143,0,0,115,200,255,255,196,204,255,255,
  138,18,0,0,171,219,255,255,236,125,0,0,218,246,255,255,4,0,0,0,
  144,0,0,0,97,144,23,151,70,51,32,143,63,54,142,241,34,37,101,192,
  235,132,210,235,201,124,178,132,245,75,131,5,231,229,225,180,127,154,55,173,
  113,103,152,129,216,55,138,129,73,160,235,191,14,166,24,199,127,49,164,234,
  121,144,129,140,232,35,38,225,239,191,184,21,237,219,247,181,127,31,206,147,
  147,10,212,129,66,238,129,172,176,102,129,183,202,127,148,139,167,186,54,174,
  123,45,240,238,114,78,198,179,42,179,197,172,167,127,127,137,79,172,46,145,
  125,127,191,204,87,13,194,170,129,112,197,141,126,129,219,129,242,72,208,197,
  186,90,197,144,200,4,230,193,118,247,255,255,4,0,0,0,64,0,0,0,
  0,0,0,0,0,0,0,0,0,0,0,0,0,0,0,0,0,0,0,0,
  0,0,0,0,0,0,0,0,0,0,0,0,0,0,0,0,0,0,0,0,
  0,0,0,0,0,0,0,0,0,0,0,0,0,0,0,0,0,0,0,0,
  0,0,0,0,194,247,255,255,4,0,0,0,0,2,0,0,29,37,0,65,
  0,61,129,29,206,49,78,185,192,203,63,68,151,163,212,0,52,36,226,29,
  189,96,127,35,0,231,159,0,24,188,38,0,21,56,231,0,129,35,50,199,
  0,0,95,61,127,109,161,0,170,0,170,207,140,142,106,49,210,176,61,118,
  228,210,43,162,0,114,0,0,193,57,159,73,119,129,70,191,0,58,78,129,
  129,178,0,0,175,77,98,42,0,219,91,163,0,0,72,76,0,160,0,200,
  0,227,0,220,127,0,222,202,148,192,0,78,0,81,129,113,224,217,108,0,
  190,0,51,110,75,0,107,156,220,178,41,222,159,127,0,185,0,43,52,199,
  129,0,191,225,219,22,108,44,198,51,107,183,0,193,219,120,164,0,0,0,
  0,77,0,52,0,63,61,0,0,52,127,87,150,43,147,188,66,44,222,68,
  159,0,73,127,68,214,89,194,173,0,42,79,33,45,0,32,132,0,127,164,
  0,0,81,0,231,61,89,0,184,59,127,181,43,0,204,41,0,222,47,0,
  165,0,0,214,129,168,0,0,28,82,193,0,104,214,76,207,185,69,0,101,
  0,0,0,61,165,103,134,0,0,48,135,129,187,80,194,104,211,84,53,0,
  117,220,55,107,191,222,0,129,129,221,74,45,223,0,34,48,230,32,53,218,
  29,32,193,0,98,34,182,190,0,0,110,231,0,0,130,22,207,217,0,129,
  95,40,188,165,43,226,216,147,50,129,146,49,162,109,0,229,56,56,0,120,
  133,145,218,120,195,168,203,127,65,73,0,0,0,0,0,57,51,42,242,59,
  159,0,76,209,208,29,31,127,60,0,161,42,159,155,84,0,0,132,0,0,
  46,127,48,39,165,0,38,0,0,65,193,92,129,0,108,183,165,39,39,74,
  0,57,221,192,0,146,0,0,209,127,37,50,93,113,74,54,108,189,0,0,
  99,87,129,131,206,0,51,181,57,138,74,0,39,174,0,0,0,19,169,30,
  183,69,127,0,0,53,76,93,196,64,219,179,53,211,113,145,129,189,207,0,
  217,0,0,0,79,0,126,194,185,182,0,55,0,195,65,127,113,146,61,45,
  44,0,191,169,129,215,212,147,198,106,0,0,191,0,0,224,127,59,0,0,
  88,0,0,0,217,0,194,49,47,120,73,47,81,188,189,133,0,204,210,129,
  47,30,234,0,0,22,0,163,206,249,255,255,4,0,0,0,128,0,0,0,
  169,249,255,255,79,254,255,255,39,250,255,255,72,254,255,255,120,4,0,0,
  231,255,255,255,27,8,0,0,57,248,255,255,45,18,0,0,52,255,255,255,
  33,246,255,255,33,255,255,255,81,250,255,255,10,13,0,0,37,1,0,0,
  80,250,255,255,159,255,255,255,56,248,255,255,201,13,0,0,190,7,0,0,
  153,253,255,255,15,252,255,255,200,252,255,255,159,250,255,255,0,0,0,0,
  18,255,255,255,9,252,255,255,149,8,0,0,0,0,0,0,239,5,0,0,
  134,8,0,0,113,6,0,0,90,250,255,255,4,0,0,0,0,4,0,0,
  190,213,235,218,0,232,169,171,73,168,170,186,193,0,200,187,221,215,91,91,
  21,132,47,32,75,49,206,0,217,74,96,42,27,0,95,0,28,222,31,47,
  155,107,93,0,30,0,0,23,77,207,24,169,0,37,0,84,51,190,104,205,
  0,40,156,185,163,189,64,30,0,60,0,227,108,131,0,73,215,83,0,0,
  190,16,54,66,200,0,235,218,179,53,18,40,0,54,222,81,0,0,226,40,
  179,230,37,187,0,186,0,72,218,198,0,209,201,183,236,0,220,218,195,39,
  79,0,0,216,217,0,73,41,198,19,0,67,74,221,33,199,200,0,33,73,
  21,0,47,36,0,0,0,192,30,194,0,0,221,0,0,196,26,0,187,0,
  0,199,0,234,232,44,0,20,0,213,179,26,0,46,0,77,55,0,0,178,
  0,177,0,0,0,0,211,38,181,0,77,27,51,206,60,78,221,77,63,66,
  0,0,0,0,0,195,224,192,207,20,49,188,68,0,195,0,0,183,192,183,
  228,0,0,217,52,161,191,215,28,21,221,194,214,191,44,0,232,0,65,0,
  216,200,42,90,0,41,0,55,0,51,25,197,65,202,59,205,62,59,22,206,
  0,76,195,0,203,203,210,76,231,0,39,201,226,192,76,0,0,26,0,180,
  32,217,41,196,68,0,64,214,48,111,0,208,58,41,42,116,152,78,100,77,
  0,153,187,223,236,58,0,147,187,87,0,218,51,0,110,0,29,181,185,31,
  178,42,0,45,168,186,63,233,0,195,0,48,0,0,0,22,0,0,234,47,
  231,44,0,199,67,33,227,213,213,22,0,37,0,100,0,215,235,196,0,72,
  178,121,0,223,86,0,49,30,19,215,181,226,211,23,206,93,39,77,104,237,
  0,189,0,0,232,0,54,205,233,53,27,220,0,215,179,204,36,57,210,0,
  0,0,0,0,0,210,37,50,0,55,191,0,0,230,0,103,61,70,49,23,
  229,207,0,31,0,74,60,0,230,167,216,72,0,48,45,0,215,79,43,73,
  183,206,49,211,197,230,167,166,33,197,59,196,218,225,186,221,25,0,188,224,
  171,77,88,0,0,0,67,47,233,228,29,174,49,22,214,25,64,93,25,0,
  70,228,198,45,0,232,0,0,182,26,190,191,38,42,21,0,25,220,233,183,
  30,235,25,194,0,217,0,223,0,191,237,179,51,213,0,32,81,195,213,156,
  0,202,154,0,0,76,0,59,175,23,219,83,0,141,48,0,58,57,209,68,
  183,62,68,220,52,232,191,0,71,72,0,30,99,156,190,45,167,30,0,216,
  50,0,77,113,0,168,180,0,210,191,217,42,189,72,113,98,201,0,0,218,
  189,194,0,53,193,0,20,73,77,55,0,188,20,48,185,195,190,0,0,0,
  64,181,73,0,203,75,33,76,210,60,178,226,196,64,0,195,53,66,0,70,
  58,45,224,0,181,228,27,31,0,195,28,197,186,226,182,0,68,74,0,210,
  45,0,0,0,33,0,0,180,105,235,186,51,0,229,0,56,224,229,43,92,
  0,136,192,0,188,31,231,0,215,0,0,32,0,80,193,60,216,0,42,0,
  232,31,80,26,112,148,205,198,199,200,29,203,217,98,181,109,0,52,49,38,
  42,230,20,198,0,201,0,0,174,0,222,0,48,47,0,0,0,216,52,28,
  0,25,210,46,0,63,218,183,198,207,225,73,0,58,65,69,0,91,53,38,
  22,0,49,0,173,0,48,55,59,199,185,51,21,78,42,235,0,24,0,43,
  47,227,93,171,57,188,175,236,196,0,231,37,227,51,43,57,222,0,209,69,
  234,45,0,68,40,80,38,0,0,197,193,31,233,213,212,0,0,38,181,70,
  216,72,75,189,186,20,0,0,35,0,50,48,73,0,210,72,218,232,0,0,
  26,193,220,200,232,187,77,178,0,0,36,187,220,140,190,73,74,0,227,234,
  0,202,0,0,43,73,203,24,176,22,69,97,55,138,232,0,78,48,151,0,
  178,30,96,95,65,222,194,78,194,0,0,0,198,0,198,217,0,64,52,178,
  50,0,19,51,200,0,233,217,65,0,39,0,57,76,194,232,98,26,57,39,
  25,207,64,60,0,127,0,28,0,0,46,183,29,57,217,152,211,95,60,0,
  188,0,118,45,213,0,226,185,92,0,46,59,173,0,187,0,193,70,77,0,
  30,33,206,189,65,74,27,0,181,55,189,211,197,58,91,0,232,169,198,189,
  72,23,190,0,235,0,203,224,25,0,24,0,232,39,0,187,234,66,0,220,
  52,195,209,0,229,0,24,206,184,228,45,182,102,57,64,177,0,25,0,91,
  179,31,57,78,0,206,0,0,0,236,175,0,26,35,234,97,0,215,35,0,
  22,43,218,228,102,254,255,255,4,0,0,0,128,0,0,0,235,25,0,0,
  129,246,255,255,77,24,0,0,0,0,0,0,0,0,0,0,91,254,255,255,
  0,0,0,0,227,14,0,0,66,253,255,255,234,232,255,255,201,242,255,255,
  108,230,255,255,247,21,0,0,126,242,255,255,66,23,0,0,0,0,0,0,
  2,28,0,0,206,23,0,0,0,0,0,0,0,0,0,0,64,24,0,0,
  247,242,255,255,233,248,255,255,89,235,255,255,24,249,255,255,0,0,0,0,
  229,22,0,0,207,251,255,255,151,234,255,255,33,232,255,255,0,0,0,0,
  237,240,255,255,242,254,255,255,4,0,0,0,64,0,0,0,131,127,0,65,
  0,229,188,28,53,0,34,0,221,25,229,197,0,170,185,0,229,79,60,28,
  55,0,194,0,104,28,65,96,0,162,60,218,38,214,207,34,36,178,0,181,
  0,190,49,234,87,0,0,65,0,159,57,197,225,0,87,217,0,205,189,151,
  62,255,255,255,4,0,0,0,8,0,0,0,193,237,255,255,63,18,0,0,
  82,255,255,255,4,0,0,0,8,0,0,0,1,0,0,0,2,0,0,0,
  152,235,255,255,156,235,255,255,15,0,0,0,77,76,73,82,32,67,111,110,
  118,101,114,116,101,100,46,0,1,0,0,0,20,0,0,0,0,0,14,0,
  24,0,20,0,16,0,12,0,8,0,4,0,14,0,0,0,20,0,0,0,
  28,0,0,0,172,2,0,0,176,2,0,0,180,2,0,0,4,0,0,0,
  109,97,105,110,0,0,0,0,9,0,0,0,72,2,0,0,228,1,0,0,
  132,1,0,0,52,1,0,0,240,0,0,0,188,0,0,0,120,0,0,0,
  64,0,0,0,4,0,0,0,74,254,255,255,28,0,0,0,0,0,0,9,
  28,0,0,0,32,0,0,0,5,0,0,0,0,0,6,0,8,0,4,0,
  6,0,0,0,0,0,128,63,1,0,0,0,20,0,0,0,1,0,0,0,
  19,0,0,0,130,254,255,255,20,0,0,0,0,0,0,8,16,0,0,0,
  20,0,0,0,4,0,0,0,104,236,255,255,1,0,0,0,19,0,0,0,
  3,0,0,0,18,0,0,0,3,0,0,0,2,0,0,0,182,254,255,255,
  28,0,0,0,0,0,0,8,28,0,0,0,32,0,0,0,4,0,0,0,
  0,0,6,0,8,0,7,0,6,0,0,0,0,0,0,1,1,0,0,0,
  18,0,0,0,3,0,0,0,17,0,0,0,5,0,0,0,4,0,0,0,
  246,254,255,255,20,0,0,0,0,0,0,27,16,0,0,0,20,0,0,0,
  3,0,0,0,220,236,255,255,1,0,0,0,17,0,0,0,2,0,0,0,
  16,0,0,0,1,0,0,0,38,255,255,255,20,0,0,0,0,0,0,5,
  36,0,0,0,40,0,0,0,1,0,0,0,22,255,255,255,2,0,0,0,
  2,0,0,0,2,0,0,0,2,0,0,0,0,0,0,1,1,0,0,0,
  16,0,0,0,1,0,0,0,15,0,0,0,6,255,255,255,28,0,0,0,
  0,0,0,1,40,0,0,0,44,0,0,0,12,0,20,0,19,0,12,0,
  8,0,7,0,12,0,0,0,0,0,0,1,1,0,0,0,1,0,0,0,
  0,0,0,1,1,0,0,0,15,0,0,0,3,0,0,0,14,0,0,0,
  7,0,0,0,6,0,0,0,178,255,255,255,32,0,0,0,0,0,0,2,
  40,0,0,0,44,0,0,0,2,0,0,0,12,0,16,0,0,0,12,0,
  8,0,4,0,12,0,0,0,1,0,0,0,1,0,0,0,1,0,0,0,
  1,0,0,0,14,0,0,0,3,0,0,0,13,0,0,0,9,0,0,0,
  8,0,0,0,0,0,14,0,26,0,20,0,16,0,12,0,11,0,4,0,
  14,0,0,0,36,0,0,0,0,0,0,5,52,0,0,0,56,0,0,0,
  1,0,0,0,0,0,14,0,24,0,23,0,16,0,12,0,8,0,4,0,
  14,0,0,0,2,0,0,0,2,0,0,0,2,0,0,0,2,0,0,0,
  0,0,0,1,1,0,0,0,13,0,0,0,1,0,0,0,12,0,0,0,
  0,0,14,0,20,0,0,0,16,0,12,0,11,0,4,0,14,0,0,0,
  28,0,0,0,0,0,0,1,36,0,0,0,40,0,0,0,12,0,16,0,
  0,0,12,0,8,0,7,0,12,0,0,0,0,0,0,1,1,0,0,0,
  1,0,0,0,1,0,0,0,12,0,0,0,3,0,0,0,0,0,0,0,
  11,0,0,0,10,0,0,0,1,0,0,0,20,0,0,0,1,0,0,0,
  0,0,0,0,21,0,0,0,208,17,0,0,72,17,0,0,180,16,0,0,
  64,16,0,0,196,15,0,0,88,15,0,0,100,13,0,0,104,11,0,0,
  44,10,0,0,200,8,0,0,156,7,0,0,112,6,0,0,76,5,0,0,
  184,4,0,0,12,4,0,0,240,2,0,0,92,2,0,0,208,1,0,0,
  36,1,0,0,128,0,0,0,4,0,0,0,154,238,255,255,0,0,0,1,
  24,0,0,0,32,0,0,0,60,0,0,0,21,0,0,0,0,0,0,9,
  80,0,0,0,2,0,0,0,255,255,255,255,2,0,0,0,124,238,255,255,
  8,0,0,0,16,0,0,0,1,0,0,0,128,255,255,255,255,255,255,255,
  1,0,0,0,0,0,128,59,25,0,0,0,83,116,97,116,101,102,117,108,
  80,97,114,116,105,116,105,111,110,101,100,67,97,108,108,58,48,0,0,0,
  2,0,0,0,1,0,0,0,2,0,0,0,18,239,255,255,0,0,0,1,
  24,0,0,0,32,0,0,0,60,0,0,0,20,0,0,0,0,0,0,9,
  120,0,0,0,2,0,0,0,255,255,255,255,2,0,0,0,244,238,255,255,
  8,0,0,0,16,0,0,0,1,0,0,0,18,0,0,0,0,0,0,0,
  1,0,0,0,56,5,26,60,64,0,0,0,109,111,100,101,108,95,101,120,
  105,116,49,47,101,120,105,116,49,95,111,117,116,112,117,116,47,77,97,116,
  77,117,108,59,109,111,100,101,108,95,101,120,105,116,49,47,101,120,105,116,
  49,95,111,117,116,112,117,116,47,66,105,97,115,65,100,100,0,0,0,0,
  2,0,0,0,1,0,0,0,2,0,0,0,178,239,255,255,0,0,0,1,
  24,0,0,0,32,0,0,0,60,0,0,0,19,0,0,0,0,0,0,9,
  128,0,0,0,2,0,0,0,255,255,255,255,32,0,0,0,148,239,255,255,
  8,0,0,0,16,0,0,0,1,0,0,0,128,255,255,255,255,255,255,255,
  1,0,0,0,66,4,21,59,73,0,0,0,109,111,100,101,108,95,101,120,
  105,116,49,47,100,101,110,115,101,47,77,97,116,77,117,108,59,109,111,100,
  101,108,95,101,120,105,116,49,47,100,101,110,115,101,47,82,101,108,117,59,
  109,111,100,101,108,95,101,120,105,116,49,47,100,101,110,115,101,47,66,105,
  97,115,65,100,100,0,0,0,2,0,0,0,1,0,0,0,32,0,0,0,
  90,240,255,255,0,0,0,1,24,0,0,0,32,0,0,0,60,0,0,0,
  18,0,0,0,0,0,0,9,96,0,0,0,2,0,0,0,255,255,255,255,
  32,0,0,0,60,240,255,255,8,0,0,0,16,0,0,0,1,0,0,0,
  128,255,255,255,255,255,255,255,1,0,0,0,158,192,63,59,41,0,0,0,
  109,111,100,101,108,95,101,120,105,116,49,47,103,108,111,98,97,108,95,97,
  118,101,114,97,103,101,95,112,111,111,108,105,110,103,50,100,47,77,101,97,
  110,0,0,0,2,0,0,0,1,0,0,0,32,0,0,0,226,240,255,255,
  0,0,0,1,24,0,0,0,40,0,0,0,68,0,0,0,17,0,0,0,
  0,0,0,9,96,0,0,0,4,0,0,0,255,255,255,255,16,0,0,0,
  16,0,0,0,32,0,0,0,204,240,255,255,8,0,0,0,16,0,0,0,
  1,0,0,0,128,255,255,255,255,255,255,255,1,0,0,0,101,21,156,59,
  35,0,0,0,109,111,100,101,108,95,101,120,105,116,49,47,109,97,120,95,
  112,111,111,108,105,110,103,50,100,95,49,47,77,97,120,80,111,111,108,0,
  4,0,0,0,1,0,0,0,16,0,0,0,16,0,0,0,32,0,0,0,
  114,241,255,255,0,0,0,1,24,0,0,0,40,0,0,0,68,0,0,0,
  16,0,0,0,0,0,0,9,232,0,0,0,4,0,0,0,255,255,255,255,
  32,0,0,0,32,0,0,0,32,0,0,0,92,241,255,255,8,0,0,0,
  16,0,0,0,1,0,0,0,128,255,255,255,255,255,255,255,1,0,0,0,
  101,21,156,59,168,0,0,0,109,111,100,101,108,95,101,120,105,116,49,47,
  115,101,112,97,114,97,98,108,101,95,99,111,110,118,50,100,47,82,101,108,
  117,59,109,111,100,101,108,95,101,120,105,116,49,47,115,101,112,97,114,97,
  98,108,101,95,99,111,110,118,50,100,47,66,105,97,115,65,100,100,59,109,
  111,100,101,108,95,101,120,105,116,49,47,115,101,112,97,114,97,98,108,101,
  95,99,111,110,118,50,100,47,115,101,112,97,114,97,98,108,101,95,99,111,
  110,118,50,100,59,109,111,100,101,108,95,101,120,105,116,49,47,115,101,112,
  97,114,97,98,108,101,95,99,111,110,118,50,100,47,66,105,97,115,65,100,
  100,47,82,101,97,100,86,97,114,105,97,98,108,101,79,112,0,0,0,0,
  4,0,0,0,1,0,0,0,32,0,0,0,32,0,0,0,32,0,0,0,
  138,242,255,255,0,0,0,1,24,0,0,0,40,0,0,0,68,0,0,0,
  15,0,0,0,0,0,0,9,120,0,0,0,4,0,0,0,255,255,255,255,
  32,0,0,0,32,0,0,0,16,0,0,0,116,242,255,255,8,0,0,0,
  16,0,0,0,1,0,0,0,223,255,255,255,255,255,255,255,1,0,0,0,
  187,96,98,60,56,0,0,0,109,111,100,101,108,95,101,120,105,116,49,47,
  115,101,112,97,114,97,98,108,101,95,99,111,110,118,50,100,47,115,101,112,
  97,114,97,98,108,101,95,99,111,110,118,50,100,47,100,101,112,116,104,119,
  105,115,101,50,0,0,0,0,4,0,0,0,1,0,0,0,32,0,0,0,
  32,0,0,0,16,0,0,0,50,243,255,255,0,0,0,1,24,0,0,0,
  40,0,0,0,68,0,0,0,14,0,0,0,0,0,0,9,96,0,0,0,
  4,0,0,0,255,255,255,255,32,0,0,0,32,0,0,0,16,0,0,0,
  28,243,255,255,8,0,0,0,16,0,0,0,1,0,0,0,128,255,255,255,
  255,255,255,255,1,0,0,0,70,112,195,59,33,0,0,0,109,111,100,101,
  108,95,101,120,105,116,49,47,109,97,120,95,112,111,111,108,105,110,103,50,
  100,47,77,97,120,80,111,111,108,0,0,0,4,0,0,0,1,0,0,0,
  32,0,0,0,32,0,0,0,16,0,0,0,194,243,255,255,0,0,0,1,
  24,0,0,0,40,0,0,0,72,0,0,0,13,0,0,0,0,0,0,9,
  240,0,0,0,4,0,0,0,255,255,255,255,64,0,0,0,64,0,0,0,
  16,0,0,0,172,243,255,255,8,0,0,0,20,0,0,0,1,0,0,0,
  128,255,255,255,255,255,255,255,0,0,0,0,1,0,0,0,70,112,195,59,
  174,0,0,0,109,111,100,101,108,95,101,120,105,116,49,47,99,111,110,118,
  50,100,47,82,101,108,117,59,109,111,100,101,108,95,101,120,105,116,49,47,
  99,111,110,118,50,100,47,66,105,97,115,65,100,100,59,109,111,100,101,108,
  95,101,120,105,116,49,47,115,101,112,97,114,97,98,108,101,95,99,111,110,
  118,50,100,47,115,101,112,97,114,97,98,108,101,95,99,111,110,118,50,100,
  47,100,101,112,116,104,119,105,115,101,59,109,111,100,101,108,95,101,120,105,
  116,49,47,99,111,110,118,50,100,47,67,111,110,118,50,68,59,109,111,100,
  101,108,95,101,120,105,116,49,47,99,111,110,118,50,100,47,66,105,97,115,
  65,100,100,47,82,101,97,100,86,97,114,105,97,98,108,101,79,112,0,0,
  4,0,0,0,1,0,0,0,64,0,0,0,64,0,0,0,16,0,0,0,
  102,245,255,255,0,0,0,1,20,0,0,0,232,0,0,0,12,0,0,0,
  0,0,0,9,252,0,0,0,180,244,255,255,8,0,0,0,140,0,0,0,
  16,0,0,0,0,0,0,0,0,0,0,0,0,0,0,0,0,0,0,0,
  0,0,0,0,0,0,0,0,0,0,0,0,0,0,0,0,0,0,0,0,
  0,0,0,0,0,0,0,0,0,0,0,0,0,0,0,0,0,0,0,0,
  0,0,0,0,0,0,0,0,0,0,0,0,0,0,0,0,0,0,0,0,
  0,0,0,0,0,0,0,0,0,0,0,0,0,0,0,0,0,0,0,0,
  0,0,0,0,0,0,0,0,0,0,0,0,0,0,0,0,0,0,0,0,
  0,0,0,0,0,0,0,0,0,0,0,0,0,0,0,0,16,0,0,0,
  255,161,249,58,125,165,238,58,169,254,21,59,169,111,6,59,30,229,254,58,
  48,190,12,59,74,173,219,58,165,80,198,58,153,147,48,59,160,80,21,59,
  38,87,192,58,26,244,231,58,18,63,19,59,116,124,230,58,201,44,160,59,
  13,61,183,58,25,0,0,0,109,111,100,101,108,95,101,120,105,116,49,47,
  99,111,110,118,50,100,47,67,111,110,118,50,68,0,0,0,4,0,0,0,
  16,0,0,0,3,0,0,0,3,0,0,0,1,0,0,0,142,246,255,255,
  0,0,0,1,20,0,0,0,228,0,0,0,11,0,0,0,0,0,0,2,
  8,1,0,0,220,245,255,255,8,0,0,0,136,0,0,0,16,0,0,0,
  0,0,0,0,0,0,0,0,0,0,0,0,0,0,0,0,0,0,0,0,
  0,0,0,0,0,0,0,0,0,0,0,0,0,0,0,0,0,0,0,0,
  0,0,0,0,0,0,0,0,0,0,0,0,0,0,0,0,0,0,0,0,
  0,0,0,0,0,0,0,0,0,0,0,0,0,0,0,0,0,0,0,0,
  0,0,0,0,0,0,0,0,0,0,0,0,0,0,0,0,0,0,0,0,
  0,0,0,0,0,0,0,0,0,0,0,0,0,0,0,0,0,0,0,0,
  0,0,0,0,0,0,0,0,16,0,0,0,163,178,245,54,118,226,234,54,
  96,161,19,55,41,81,4,55,134,224,250,54,61,134,10,55,208,54,216,54,
  95,48,195,54,12,203,45,55,21,246,18,55,252,78,189,54,21,76,228,54,
  224,236,16,55,91,218,226,54,108,166,157,55,158,89,180,54,41,0,0,0,
  109,111,100,101,108,95,101,120,105,116,49,47,99,111,110,118,50,100,47,66,
  105,97,115,65,100,100,47,82,101,97,100,86,97,114,105,97,98,108,101,79,
  112,0,0,0,1,0,0,0,16,0,0,0,182,247,255,255,0,0,0,1,
  40,0,0,0,0,1,0,0,10,0,0,0,0,0,0,9,52,1,0,0,
  0,0,18,0,16,0,0,0,0,0,12,0,8,0,0,0,0,0,4,0,
  18,0,0,0,3,0,0,0,8,0,0,0,140,0,0,0,16,0,0,0,
  0,0,0,0,0,0,0,0,0,0,0,0,0,0,0,0,0,0,0,0,
  0,0,0,0,0,0,0,0,0,0,0,0,0,0,0,0,0,0,0,0,
  0,0,0,0,0,0,0,0,0,0,0,0,0,0,0,0,0,0,0,0,
  0,0,0,0,0,0,0,0,0,0,0,0,0,0,0,0,0,0,0,0,
  0,0,0,0,0,0,0,0,0,0,0,0,0,0,0,0,0,0,0,0,
  0,0,0,0,0,0,0,0,0,0,0,0,0,0,0,0,0,0,0,0,
  0,0,0,0,0,0,0,0,0,0,0,0,16,0,0,0,100,248,13,59,
  238,3,242,58,32,233,34,59,240,163,33,59,188,50,230,58,219,255,15,59,
  144,7,96,59,116,150,100,59,160,163,31,59,71,252,207,58,198,176,123,59,
  251,159,231,58,244,146,200,58,113,63,218,58,24,97,76,59,181,27,109,59,
  56,0,0,0,109,111,100,101,108,95,101,120,105,116,49,47,115,101,112,97,
  114,97,98,108,101,95,99,111,110,118,50,100,47,115,101,112,97,114,97,98,
  108,101,95,99,111,110,118,50,100,47,100,101,112,116,104,119,105,115,101,49,
  0,0,0,0,4,0,0,0,1,0,0,0,3,0,0,0,3,0,0,0,
  16,0,0,0,22,249,255,255,0,0,0,1,20,0,0,0,232,0,0,0,
  9,0,0,0,0,0,0,2,24,1,0,0,100,248,255,255,8,0,0,0,
  140,0,0,0,16,0,0,0,0,0,0,0,0,0,0,0,0,0,0,0,
  0,0,0,0,0,0,0,0,0,0,0,0,0,0,0,0,0,0,0,0,
  0,0,0,0,0,0,0,0,0,0,0,0,0,0,0,0,0,0,0,0,
  0,0,0,0,0,0,0,0,0,0,0,0,0,0,0,0,0,0,0,0,
  0,0,0,0,0,0,0,0,0,0,0,0,0,0,0,0,0,0,0,0,
  0,0,0,0,0,0,0,0,0,0,0,0,0,0,0,0,0,0,0,0,
  0,0,0,0,0,0,0,0,0,0,0,0,0,0,0,0,0,0,0,0,
  16,0,0,0,239,196,88,55,34,195,56,55,12,190,120,55,135,205,118,55,
  154,189,47,55,22,222,91,55,3,8,171,55,219,130,174,55,76,191,115,55,
  97,200,30,55,9,38,192,55,114,212,48,55,231,31,25,55,11,158,38,55,
  152,7,156,55,24,4,181,55,55,0,0,0,109,111,100,101,108,95,101,120,
  105,116,49,47,115,101,112,97,114,97,98,108,101,95,99,111,110,118,50,100,
  47,115,101,112,97,114,97,98,108,101,95,99,111,110,118,50,100,47,100,101,
  112,116,104,119,105,115,101,0,1,0,0,0,16,0,0,0,78,250,255,255,
  0,0,0,1,20,0,0,0,164,1,0,0,8,0,0,0,0,0,0,9,
  204,1,0,0,156,249,255,255,8,0,0,0,8,1,0,0,32,0,0,0,
  0,0,0,0,0,0,0,0,0,0,0,0,0,0,0,0,0,0,0,0,
  0,0,0,0,0,0,0,0,0,0,0,0,0,0,0,0,0,0,0,0,
  0,0,0,0,0,0,0,0,0,0,0,0,0,0,0,0,0,0,0,0,
  0,0,0,0,0,0,0,0,0,0,0,0,0,0,0,0,0,0,0,0,
  0,0,0,0,0,0,0,0,0,0,0,0,0,0,0,0,0,0,0,0,
  0,0,0,0,0,0,0,0,0,0,0,0,0,0,0,0,0,0,0,0,
  0,0,0,0,0,0,0,0,0,0,0,0,0,0,0,0,0,0,0,0,
  0,0,0,0,0,0,0,0,0,0,0,0,0,0,0,0,0,0,0,0,
  0,0,0,0,0,0,0,0,0,0,0,0,0,0,0,0,0,0,0,0,
  0,0,0,0,0,0,0,0,0,0,0,0,0,0,0,0,0,0,0,0,
  0,0,0,0,0,0,0,0,0,0,0,0,0,0,0,0,0,0,0,0,
  0,0,0,0,0,0,0,0,0,0,0,0,0,0,0,0,0,0,0,0,
  0,0,0,0,0,0,0,0,0,0,0,0,0,0,0,0,32,0,0,0,
  70,126,168,59,71,51,151,59,160,116,167,59,121,216,22,59,226,204,112,59,
  111,76,48,59,190,8,101,59,140,130,120,59,231,53,100,59,26,197,148,59,
  28,235,104,59,213,239,52,59,77,73,135,59,132,189,101,59,205,129,121,59,
  123,75,10,59,41,200,40,59,35,232,139,59,227,13,134,59,90,78,152,59,
  253,109,53,59,38,242,191,59,146,12,30,59,209,253,133,59,180,193,49,59,
  203,155,72,59,110,186,160,59,10,137,99,59,134,236,36,59,91,48,139,59,
  148,137,88,59,173,152,173,59,45,0,0,0,109,111,100,101,108,95,101,120,
  105,116,49,47,115,101,112,97,114,97,98,108,101,95,99,111,110,118,50,100,
  47,115,101,112,97,114,97,98,108,101,95,99,111,110,118,50,100,0,0,0,
  4,0,0,0,32,0,0,0,1,0,0,0,1,0,0,0,16,0,0,0,
  70,252,255,255,0,0,0,1,20,0,0,0,164,1,0,0,7,0,0,0,
  0,0,0,2,208,1,0,0,148,251,255,255,8,0,0,0,8,1,0,0,
  32,0,0,0,0,0,0,0,0,0,0,0,0,0,0,0,0,0,0,0,
  0,0,0,0,0,0,0,0,0,0,0,0,0,0,0,0,0,0,0,0,
  0,0,0,0,0,0,0,0,0,0,0,0,0,0,0,0,0,0,0,0,
  0,0,0,0,0,0,0,0,0,0,0,0,0,0,0,0,0,0,0,0,
  0,0,0,0,0,0,0,0,0,0,0,0,0,0,0,0,0,0,0,0,
  0,0,0,0,0,0,0,0,0,0,0,0,0,0,0,0,0,0,0,0,
  0,0,0,0,0,0,0,0,0,0,0,0,0,0,0,0,0,0,0,0,
  0,0,0,0,0,0,0,0,0,0,0,0,0,0,0,0,0,0,0,0,
  0,0,0,0,0,0,0,0,0,0,0,0,0,0,0,0,0,0,0,0,
  0,0,0,0,0,0,0,0,0,0,0,0,0,0,0,0,0,0,0,0,
  0,0,0,0,0,0,0,0,0,0,0,0,0,0,0,0,0,0,0,0,
  0,0,0,0,0,0,0,0,0,0,0,0,0,0,0,0,0,0,0,0,
  0,0,0,0,0,0,0,0,0,0,0,0,0,0,0,0,0,0,0,0,
  32,0,0,0,36,255,148,56,102,180,133,56,59,20,148,56,26,100,5,56,
  220,239,84,56,23,230,27,56,66,136,74,56,38,193,91,56,209,205,73,56,
  56,142,131,56,145,247,77,56,24,0,32,56,169,67,111,56,29,40,75,56,
  222,162,92,56,200,149,244,55,123,64,21,56,152,111,119,56,211,21,109,56,
  184,174,134,56,167,111,32,56,77,188,169,56,209,194,11,56,103,249,108,56,
  43,48,29,56,86,101,49,56,80,33,142,56,244,52,73,56,31,215,17,56,
  144,42,118,56,70,123,63,56,97,130,153,56,51,0,0,0,109,111,100,101,
  108,95,101,120,105,116,49,47,115,101,112,97,114,97,98,108,101,95,99,111,
  110,118,50,100,47,66,105,97,115,65,100,100,47,82,101,97,100,86,97,114,
  105,97,98,108,101,79,112,0,1,0,0,0,32,0,0,0,54,254,255,255,
  0,0,0,1,20,0,0,0,48,0,0,0,6,0,0,0,0,0,0,9,
  68,0,0,0,132,253,255,255,8,0,0,0,16,0,0,0,1,0,0,0,
  0,0,0,0,0,0,0,0,1,0,0,0,221,118,124,59,24,0,0,0,
  109,111,100,101,108,95,101,120,105,116,49,47,100,101,110,115,101,47,77,97,
  116,77,117,108,0,0,0,0,2,0,0,0,32,0,0,0,32,0,0,0,
  158,254,255,255,0,0,0,1,20,0,0,0,52,0,0,0,5,0,0,0,
  0,0,0,2,88,0,0,0,236,253,255,255,8,0,0,0,20,0,0,0,
  1,0,0,0,0,0,0,0,0,0,0,0,0,0,0,0,1,0,0,0,
  164,26,61,55,40,0,0,0,109,111,100,101,108,95,101,120,105,116,49,47,
  100,101,110,115,101,47,66,105,97,115,65,100,100,47,82,101,97,100,86,97,
  114,105,97,98,108,101,79,112,0,0,0,0,1,0,0,0,32,0,0,0,
  22,255,255,255,0,0,0,1,20,0,0,0,52,0,0,0,4,0,0,0,
  0,0,0,9,76,0,0,0,100,254,255,255,8,0,0,0,20,0,0,0,
  1,0,0,0,0,0,0,0,0,0,0,0,0,0,0,0,1,0,0,0,
  147,148,192,59,31,0,0,0,109,111,100,101,108,95,101,120,105,116,49,47,
  101,120,105,116,49,95,111,117,116,112,117,116,47,77,97,116,77,117,108,0,
  2,0,0,0,2,0,0,0,32,0,0,0,134,255,255,255,0,0,0,1,
  20,0,0,0,48,0,0,0,3,0,0,0,0,0,0,2,88,0,0,0,
  212,254,255,255,8,0,0,0,16,0,0,0,1,0,0,0,0,0,0,0,
  0,0,0,0,1,0,0,0,91,51,96,55,47,0,0,0,109,111,100,101,
  108,95,101,120,105,116,49,47,101,120,105,116,49,95,111,117,116,112,117,116,
  47,66,105,97,115,65,100,100,47,82,101,97,100,86,97,114,105,97,98,108,
  101,79,112,0,1,0,0,0,2,0,0,0,0,0,22,0,28,0,24,0,
  23,0,16,0,12,0,8,0,0,0,0,0,0,0,7,0,22,0,0,0,
  0,0,0,1,24,0,0,0,24,0,0,0,2,0,0,0,0,0,0,2,
  76,0,0,0,4,0,4,0,4,0,0,0,59,0,0,0,109,111,100,101,
  108,95,101,120,105,116,49,47,103,108,111,98,97,108,95,97,118,101,114,97,
  103,101,95,112,111,111,108,105,110,103,50,100,47,77,101,97,110,47,114,101,
  100,117,99,116,105,111,110,95,105,110,100,105,99,101,115,0,1,0,0,0,
  2,0,0,0,0,0,22,0,32,0,28,0,27,0,20,0,16,0,12,0,
  0,0,0,0,8,0,7,0,22,0,0,0,0,0,0,1,24,0,0,0,
  52,0,0,0,84,0,0,0,1,0,0,0,0,0,0,9,104,0,0,0,
  4,0,0,0,255,255,255,255,64,0,0,0,64,0,0,0,1,0,0,0,
  12,0,12,0,0,0,0,0,8,0,4,0,12,0,0,0,8,0,0,0,
  20,0,0,0,1,0,0,0,128,255,255,255,255,255,255,255,0,0,0,0,
  1,0,0,0,242,246,123,59,25,0,0,0,115,101,114,118,105,110,103,95,
  100,101,102,97,117,108,116,95,105,110,112,117,116,95,49,58,48,0,0,0,
  4,0,0,0,1,0,0,0,64,0,0,0,64,0,0,0,1,0,0,0,
  6,0,0,0,116,0,0,0,84,0,0,0,64,0,0,0,44,0,0,0,
  24,0,0,0,4,0,0,0,176,255,255,255,25,0,0,0,2,0,0,0,
  0,0,0,25,192,255,255,255,9,0,0,0,4,0,0,0,0,0,0,9,
  208,255,255,255,40,0,0,0,2,0,0,0,0,0,0,40,224,255,255,255,
  4,0,0,0,3,0,0,0,0,0,0,4,240,255,255,255,17,0,0,0,
  2,0,0,0,0,0,0,17,12,0,16,0,15,0,0,0,8,0,4,0,
  12,0,0,0,3,0,0,0,3,0,0,0,0,0,0,3
};
const int g_model_exit1_int8_len = 8576;
