// Auto-generated from C:\1_A-Z Classwork\SEM3\EDI\tinyml_esp\tinyml-esp32-project\models_export\model_full_int8.tflite
#include <cstdint>

const unsigned char g_model_full_int8[] = {
  32,0,0,0,84,70,76,51,0,0,0,0,20,0,32,0,28,0,24,0,
  20,0,16,0,12,0,0,0,8,0,4,0,20,0,0,0,28,0,0,0,
  144,0,0,0,232,0,0,0,176,55,0,0,192,55,0,0,248,107,0,0,
  3,0,0,0,1,0,0,0,16,0,0,0,0,0,10,0,16,0,12,0,
  8,0,4,0,10,0,0,0,12,0,0,0,28,0,0,0,60,0,0,0,
  15,0,0,0,115,101,114,118,105,110,103,95,100,101,102,97,117,108,116,0,
  1,0,0,0,4,0,0,0,152,255,255,255,33,0,0,0,4,0,0,0,
  11,0,0,0,102,117,108,108,95,111,117,116,112,117,116,0,1,0,0,0,
  4,0,0,0,30,200,255,255,4,0,0,0,7,0,0,0,105,110,112,117,
  116,95,49,0,2,0,0,0,52,0,0,0,4,0,0,0,220,255,255,255,
  36,0,0,0,4,0,0,0,19,0,0,0,67,79,78,86,69,82,83,73,
  79,78,95,77,69,84,65,68,65,84,65,0,8,0,12,0,8,0,4,0,
  8,0,0,0,35,0,0,0,4,0,0,0,19,0,0,0,109,105,110,95,
  114,117,110,116,105,109,101,95,118,101,114,115,105,111,110,0,37,0,0,0,
  196,54,0,0,188,54,0,0,164,54,0,0,140,54,0,0,252,53,0,0,
  236,52,0,0,220,36,0,0,204,35,0,0,188,19,0,0,172,18,0,0,
  92,16,0,0,76,15,0,0,60,7,0,0,172,6,0,0,124,5,0,0,
  236,4,0,0,220,2,0,0,140,2,0,0,236,1,0,0,156,1,0,0,
  252,0,0,0,244,0,0,0,236,0,0,0,228,0,0,0,220,0,0,0,
  212,0,0,0,204,0,0,0,196,0,0,0,188,0,0,0,180,0,0,0,
  172,0,0,0,164,0,0,0,156,0,0,0,148,0,0,0,140,0,0,0,
  108,0,0,0,4,0,0,0,38,201,255,255,4,0,0,0,88,0,0,0,
  12,0,0,0,8,0,14,0,8,0,4,0,8,0,0,0,16,0,0,0,
  40,0,0,0,0,0,6,0,8,0,4,0,6,0,0,0,4,0,0,0,
  1,0,0,0,235,3,0,0,0,0,10,0,16,0,12,0,8,0,4,0,
  10,0,0,0,2,0,0,0,2,0,0,0,4,0,0,0,6,0,0,0,
  50,46,49,48,46,48,0,0,138,201,255,255,4,0,0,0,16,0,0,0,
  49,46,49,52,46,48,0,0,0,0,0,0,0,0,0,0,0,151,255,255,
  4,151,255,255,8,151,255,255,12,151,255,255,16,151,255,255,20,151,255,255,
  24,151,255,255,28,151,255,255,32,151,255,255,36,151,255,255,40,151,255,255,
  44,151,255,255,48,151,255,255,52,151,255,255,222,201,255,255,4,0,0,0,
  144,0,0,0,122,0,92,0,217,143,190,127,87,210,201,75,0,97,165,0,
  82,129,35,118,112,25,42,71,91,127,204,58,232,107,127,104,223,212,107,106,
  81,208,0,221,159,42,47,64,129,232,84,35,0,127,28,100,117,0,127,0,
  66,219,185,100,41,0,90,228,44,37,0,46,129,147,0,0,106,33,92,62,
  163,198,232,129,157,127,0,207,219,183,221,117,131,81,40,34,221,233,127,153,
  0,28,158,205,0,195,127,203,40,42,59,93,204,0,181,0,185,154,79,148,
  129,162,104,145,0,37,127,0,55,89,215,228,129,38,35,227,38,106,221,0,
  129,163,148,229,136,205,220,131,122,202,255,255,4,0,0,0,64,0,0,0,
  69,175,255,255,241,78,0,0,42,174,255,255,196,202,255,255,246,112,0,0,
  64,211,255,255,235,172,255,255,66,63,0,0,209,20,0,0,36,247,255,255,
  212,254,255,255,1,139,255,255,71,25,0,0,69,159,255,255,102,14,0,0,
  10,78,0,0,198,202,255,255,4,0,0,0,144,0,0,0,233,98,193,200,
  187,94,129,13,115,185,179,240,106,208,39,50,175,240,246,222,131,127,61,180,
  80,152,144,155,82,225,238,105,15,89,164,228,133,50,192,129,81,188,243,191,
  73,35,11,84,100,127,251,206,129,91,166,189,102,194,210,195,48,240,252,103,
  95,11,238,138,10,230,184,139,49,129,129,129,183,78,132,127,34,83,138,129,
  226,15,191,254,60,167,236,140,12,127,129,34,190,250,129,8,136,74,44,152,
  20,250,26,227,127,124,6,36,127,75,237,160,195,73,225,164,127,173,171,35,
  5,108,229,1,25,94,21,253,232,70,196,154,125,190,179,198,185,216,169,17,
  98,203,255,255,4,0,0,0,64,0,0,0,0,0,0,0,0,0,0,0,
  0,0,0,0,0,0,0,0,0,0,0,0,0,0,0,0,0,0,0,0,
  0,0,0,0,0,0,0,0,0,0,0,0,0,0,0,0,0,0,0,0,
  0,0,0,0,0,0,0,0,0,0,0,0,0,0,0,0,174,203,255,255,
  4,0,0,0,0,2,0,0,129,67,0,48,132,169,22,204,206,162,40,147,
  201,53,197,182,96,0,76,173,41,149,29,131,212,127,112,163,174,242,0,141,
  72,239,0,25,234,42,196,196,0,129,194,217,172,226,215,236,225,66,97,127,
  0,61,201,98,77,0,216,35,80,40,226,123,51,194,232,204,26,62,144,0,
  73,0,58,129,0,75,20,188,0,183,19,122,62,215,62,131,0,64,170,0,
  0,99,70,127,67,211,0,217,183,102,220,31,174,127,107,43,0,218,199,225,
  165,226,67,0,140,214,0,0,173,197,35,39,160,172,127,197,37,209,54,48,
  238,0,222,0,223,104,127,88,89,184,205,44,89,94,30,233,202,211,100,79,
  236,219,83,28,201,0,127,159,238,172,0,192,146,127,0,62,107,135,107,0,
  183,185,0,108,129,203,192,67,169,0,226,150,109,97,99,0,0,145,164,142,
  0,23,60,226,33,0,62,129,177,125,227,91,169,30,18,0,33,226,114,91,
  129,20,233,162,74,239,98,104,63,189,174,72,44,222,29,39,219,51,43,38,
  0,70,54,225,63,53,207,127,49,193,148,226,28,60,56,42,129,33,108,167,
  42,74,242,223,110,0,152,68,107,115,164,43,103,101,64,168,130,129,142,47,
  218,24,209,17,229,96,225,51,39,125,23,0,25,189,215,127,172,86,70,0,
  129,24,41,210,0,239,74,0,0,176,203,218,90,36,0,154,0,34,151,195,
  248,0,0,194,45,127,135,0,189,177,159,119,133,189,64,181,85,0,111,92,
  129,82,83,55,40,219,207,212,86,127,199,46,198,0,105,132,138,121,141,183,
  220,224,221,96,0,52,33,127,139,32,183,225,0,138,178,62,233,179,174,158,
  67,74,145,99,181,127,79,42,0,192,70,0,181,117,82,96,129,52,73,131,
  187,0,42,20,184,188,97,0,172,72,234,236,160,0,27,169,220,81,188,183,
  230,111,57,127,129,0,20,47,148,0,213,76,65,206,173,233,177,178,119,35,
  0,127,80,184,218,187,156,67,0,0,0,145,216,69,213,91,50,61,30,209,
  97,105,129,0,93,100,80,203,90,0,223,0,85,195,212,0,229,51,16,194,
  127,177,224,203,94,0,0,32,60,170,158,189,179,171,0,84,127,42,210,93,
  0,108,40,159,187,36,205,29,54,129,163,188,0,228,88,22,105,228,0,76,
  186,205,255,255,4,0,0,0,128,0,0,0,115,12,0,0,199,21,0,0,
  44,252,255,255,205,5,0,0,59,245,255,255,12,22,0,0,94,249,255,255,
  168,11,0,0,164,246,255,255,184,30,0,0,131,253,255,255,79,15,0,0,
  5,24,0,0,150,16,0,0,205,255,255,255,214,248,255,255,217,12,0,0,
  139,248,255,255,50,23,0,0,91,254,255,255,219,5,0,0,193,247,255,255,
  253,246,255,255,171,254,255,255,46,8,0,0,174,250,255,255,171,0,0,0,
  95,231,255,255,204,253,255,255,128,241,255,255,133,18,0,0,140,242,255,255,
  70,206,255,255,4,0,0,0,32,1,0,0,180,0,209,2,38,104,36,211,
  191,199,155,67,237,31,59,131,205,162,192,221,187,220,246,103,244,60,69,221,
  251,66,6,193,6,45,127,184,1,127,112,172,198,179,77,98,54,127,127,129,
  127,19,186,6,243,244,127,111,77,137,16,88,171,18,240,209,129,102,126,182,
  214,89,127,129,70,202,143,96,24,109,89,148,93,153,191,237,176,46,78,115,
  127,171,28,187,1,56,246,195,145,200,196,149,14,45,23,244,127,228,96,91,
  60,66,64,189,45,137,145,196,156,202,9,41,120,129,51,39,22,129,249,155,
  245,83,125,129,4,108,232,177,197,242,214,4,244,36,44,240,234,129,233,8,
  235,194,192,29,9,60,9,123,97,246,3,45,153,223,92,214,84,49,76,189,
  138,182,146,247,237,122,115,195,231,11,158,244,131,50,194,111,80,7,127,53,
  127,60,9,29,18,129,81,219,127,50,70,158,163,168,127,17,127,222,83,178,
  199,187,129,53,254,123,163,58,186,244,1,232,13,241,129,129,245,141,255,194,
  72,64,76,2,77,186,115,127,94,72,250,190,186,3,204,238,129,115,125,73,
  250,112,61,127,41,11,170,219,13,46,73,31,61,19,18,250,84,129,195,16,
  79,45,194,218,152,167,136,127,10,127,238,127,164,81,18,125,113,83,171,10,
  114,207,255,255,4,0,0,0,128,0,0,0,0,0,0,0,0,0,0,0,
  0,0,0,0,0,0,0,0,0,0,0,0,0,0,0,0,0,0,0,0,
  0,0,0,0,0,0,0,0,0,0,0,0,0,0,0,0,0,0,0,0,
  0,0,0,0,0,0,0,0,0,0,0,0,0,0,0,0,0,0,0,0,
  0,0,0,0,0,0,0,0,0,0,0,0,0,0,0,0,0,0,0,0,
  0,0,0,0,0,0,0,0,0,0,0,0,0,0,0,0,0,0,0,0,
  0,0,0,0,0,0,0,0,0,0,0,0,0,0,0,0,0,0,0,0,
  254,207,255,255,4,0,0,0,0,8,0,0,233,175,129,226,229,208,96,50,
  54,150,0,43,99,38,199,48,220,83,145,104,62,0,179,51,101,0,208,158,
  183,210,36,158,176,129,246,204,115,201,26,91,147,74,208,156,220,27,210,85,
  24,25,153,114,40,166,140,208,26,229,220,0,204,206,175,104,75,185,0,228,
  169,158,229,157,81,213,30,240,0,0,154,55,92,0,198,28,204,147,194,141,
  129,210,81,0,240,220,226,21,36,186,127,237,37,132,0,75,159,0,220,0,
  194,42,37,39,125,0,0,102,0,232,171,72,79,146,0,114,80,220,0,230,
  75,84,114,0,192,180,24,48,213,93,165,0,85,215,20,186,239,168,178,0,
  79,0,163,161,163,127,174,86,130,228,197,46,129,0,234,31,189,0,26,35,
  34,0,73,24,131,0,0,0,87,121,57,49,74,41,51,173,146,24,68,234,
  78,159,87,0,206,202,52,83,231,195,195,144,28,0,238,55,61,160,136,127,
  40,63,155,232,189,157,154,232,229,153,53,45,215,192,0,51,53,199,75,114,
  22,0,0,0,87,176,236,161,49,0,132,127,85,163,228,133,157,215,0,18,
  237,0,224,0,19,44,167,0,162,63,62,218,136,217,77,158,149,21,174,181,
  168,121,155,191,118,92,109,241,0,225,141,207,0,47,135,109,187,228,175,127,
  0,190,21,204,110,0,167,0,224,127,32,152,199,42,209,147,91,192,102,29,
  0,175,41,100,0,0,67,0,80,196,60,63,0,142,200,27,217,68,220,146,
  69,168,175,207,200,0,214,34,228,188,0,84,67,148,0,129,51,0,169,25,
  36,0,44,23,41,25,231,190,160,127,50,65,18,114,97,116,28,73,189,0,
  174,151,86,26,69,227,0,171,31,0,23,151,34,25,23,0,0,221,78,0,
  70,213,213,166,0,206,0,209,48,80,168,62,0,216,240,177,188,32,102,0,
  127,223,212,196,93,0,234,0,127,179,197,22,117,0,85,187,0,220,201,0,
  209,233,27,0,177,173,49,203,239,31,0,127,149,0,186,182,117,148,20,213,
  204,218,97,182,207,170,17,211,63,74,168,235,150,129,17,0,184,139,56,236,
  241,231,219,107,88,106,223,96,184,0,187,213,172,78,22,193,91,206,173,219,
  66,86,241,231,50,0,34,36,61,157,240,214,25,129,67,0,195,227,228,203,
  231,0,59,170,198,0,24,43,188,161,180,0,69,173,0,235,198,129,82,0,
  0,228,0,44,91,148,21,213,0,154,32,86,158,178,52,48,216,230,222,18,
  212,23,32,219,219,217,129,25,85,49,57,217,79,186,85,150,21,173,187,35,
  0,198,106,47,38,0,41,194,177,206,0,35,211,51,62,113,69,234,0,129,
  136,102,183,0,80,95,53,0,118,89,89,66,234,0,28,203,190,55,0,99,
  65,216,65,40,236,0,234,237,106,0,86,218,163,129,205,204,62,191,92,108,
  190,87,168,53,75,213,102,117,233,178,208,169,71,150,102,53,102,0,229,181,
  0,127,25,60,31,27,98,210,84,91,177,235,55,78,0,139,40,0,0,236,
  49,0,122,198,143,151,50,0,215,167,228,64,77,45,175,201,195,205,129,43,
  68,19,164,47,160,65,28,19,94,209,38,0,185,121,194,114,0,0,30,232,
  0,101,62,180,20,207,109,34,185,86,32,0,200,73,0,31,0,104,70,186,
  76,127,87,55,26,0,228,0,174,228,193,217,81,74,188,167,204,90,127,33,
  237,92,206,54,14,195,212,100,12,71,231,176,62,86,201,0,241,181,42,15,
  54,168,0,235,85,129,20,44,180,80,32,195,150,0,169,187,195,171,79,26,
  28,230,60,14,91,237,209,37,233,244,228,207,184,0,24,231,52,234,49,0,
  158,98,53,86,140,152,129,162,192,191,107,20,16,111,192,0,0,159,69,42,
  36,85,217,148,208,38,232,24,141,168,239,219,0,168,207,243,56,0,214,127,
  26,75,0,193,20,32,40,231,227,0,90,30,142,94,220,0,90,38,0,106,
  54,142,180,150,87,0,95,13,60,209,228,127,103,102,0,195,46,0,36,134,
  225,0,0,47,161,52,183,41,194,191,65,100,162,236,34,173,239,0,193,0,
  24,235,39,27,0,0,227,168,34,131,224,172,18,39,79,127,28,34,57,74,
  98,214,221,127,41,137,44,28,172,185,213,0,53,180,17,185,224,83,221,24,
  214,101,181,35,23,0,35,205,0,161,76,153,60,76,127,209,176,67,151,0,
  118,117,86,205,26,195,23,30,171,51,196,21,199,82,85,78,27,68,152,157,
  209,96,67,127,74,243,41,19,0,160,44,233,0,171,129,96,0,180,143,40,
  231,210,29,0,46,237,228,191,226,72,237,106,71,0,224,198,195,129,195,106,
  230,26,0,107,189,229,87,141,27,0,88,154,60,0,115,221,175,99,81,215,
  72,72,131,194,44,198,65,230,37,162,235,73,137,198,38,178,199,72,142,236,
  234,0,159,101,169,129,41,132,109,48,25,155,0,155,215,0,190,83,230,158,
  228,39,176,74,0,207,238,33,0,127,87,198,169,187,221,0,44,234,120,212,
  214,185,224,102,114,52,183,0,96,63,76,50,79,182,59,28,102,58,223,220,
  228,13,178,183,226,0,213,25,0,0,30,234,212,0,173,117,61,25,129,56,
  190,69,165,178,0,40,47,226,234,0,192,0,93,0,154,0,203,172,236,177,
  63,182,201,77,54,48,49,68,28,239,0,141,154,127,38,56,47,230,160,78,
  0,229,211,127,239,0,64,146,28,0,213,144,184,84,44,236,211,40,107,36,
  0,159,153,126,113,206,108,223,0,68,164,76,99,105,0,0,45,69,80,158,
  93,205,30,157,186,42,179,79,0,102,225,127,0,113,230,210,99,229,23,154,
  36,241,153,157,14,0,0,229,57,137,14,197,192,23,30,49,20,28,129,231,
  233,53,175,15,121,148,67,151,32,44,237,201,0,106,92,94,0,0,82,104,
  197,229,0,40,0,19,184,0,214,0,57,38,160,0,17,37,0,0,199,187,
  166,127,63,206,28,42,193,0,63,0,236,0,42,127,188,173,185,66,201,195,
  48,193,96,23,186,68,0,14,0,36,239,75,185,161,47,236,78,183,226,0,
  227,23,129,180,193,147,0,0,198,35,136,0,102,205,16,157,0,239,19,177,
  167,58,71,24,182,116,97,42,71,0,230,116,19,177,127,60,23,221,178,234,
  104,179,144,220,239,222,16,49,83,0,62,112,0,212,238,240,0,16,13,18,
  0,120,127,50,118,0,225,16,19,0,179,215,161,69,0,18,81,75,0,51,
  77,0,79,160,160,129,85,165,189,0,221,159,0,86,164,136,49,0,220,0,
  83,158,96,107,119,126,0,0,56,43,129,37,232,206,231,41,83,47,19,168,
  214,204,197,221,88,107,163,0,129,30,126,77,55,43,39,226,198,51,64,221,
  179,113,20,102,238,0,0,172,189,199,32,146,192,0,167,187,28,70,73,185,
  221,158,114,0,0,94,69,194,39,129,28,0,21,174,91,183,60,172,189,0,
  187,144,61,231,94,0,74,206,50,174,0,103,220,36,26,177,217,189,129,34,
  38,207,136,93,0,90,15,63,0,39,0,149,137,208,84,114,196,39,195,64,
  56,0,18,222,162,160,196,28,208,184,239,0,206,239,188,116,127,0,184,74,
  85,178,242,183,26,60,50,42,0,103,237,0,181,72,32,41,65,240,0,0,
  213,127,234,35,57,236,53,227,0,233,89,207,23,214,19,30,0,43,229,62,
  185,223,177,221,185,150,91,200,237,115,49,84,0,38,106,179,136,0,118,0,
  179,109,23,164,221,204,129,129,95,181,147,227,109,146,137,74,143,144,0,203,
  29,127,106,138,240,143,100,42,61,96,55,220,47,184,151,93,30,178,240,38,
  230,36,66,231,194,67,0,86,0,88,223,67,143,151,83,47,187,127,38,0,
  179,208,201,224,192,0,43,44,188,21,169,87,24,122,59,243,174,192,0,0,
  24,0,207,229,235,32,63,223,232,24,52,34,222,184,36,196,66,0,52,0,
  220,129,206,204,213,189,11,81,244,0,77,226,52,74,211,25,188,25,52,216,
  188,127,81,217,189,160,68,236,210,74,44,58,55,55,16,80,113,222,43,0,
  17,46,23,0,44,41,41,58,90,16,196,214,193,26,232,17,216,181,104,0,
  58,211,0,205,57,203,41,244,47,152,72,20,127,187,51,60,224,61,0,67,
  165,241,0,189,165,129,173,122,241,25,56,0,215,153,186,0,72,68,59,62,
  82,172,106,224,0,0,39,193,234,0,225,219,52,157,226,187,14,222,92,40,
  241,187,205,210,182,70,0,56,242,35,245,219,22,127,53,26,24,42,57,0,
  30,157,102,99,173,129,170,0,227,155,145,100,0,205,26,103,64,116,158,49,
  39,239,63,142,200,77,78,98,0,97,0,39,185,133,86,225,140,157,25,86,
  231,154,0,127,170,0,237,65,0,230,35,188,220,195,101,48,152,199,0,119,
  47,47,82,78,67,195,71,0,65,142,182,28,26,232,33,243,38,0,137,38,
  57,219,175,118,235,239,0,195,32,51,0,127,227,65,185,61,179,48,63,69,
  142,29,149,170,75,0,38,33,116,0,0,127,58,62,180,22,21,154,232,150,
  168,0,0,0,195,229,86,34,93,214,105,85,186,129,164,224,218,187,0,47,
  88,188,162,106,119,54,230,190,25,185,73,133,0,193,0,198,136,221,166,0,
  10,216,255,255,4,0,0,0,0,1,0,0,69,11,0,0,14,253,255,255,
  24,6,0,0,59,238,255,255,122,4,0,0,25,254,255,255,8,3,0,0,
  143,2,0,0,242,254,255,255,84,240,255,255,250,4,0,0,10,5,0,0,
  77,1,0,0,168,9,0,0,34,241,255,255,46,1,0,0,85,10,0,0,
  147,242,255,255,96,241,255,255,6,245,255,255,68,252,255,255,200,253,255,255,
  75,0,0,0,195,254,255,255,37,245,255,255,214,243,255,255,240,4,0,0,
  26,15,0,0,13,11,0,0,13,1,0,0,100,1,0,0,19,5,0,0,
  234,254,255,255,214,254,255,255,135,249,255,255,197,9,0,0,17,0,0,0,
  121,242,255,255,167,0,0,0,89,15,0,0,88,246,255,255,77,248,255,255,
  114,5,0,0,215,7,0,0,209,255,255,255,43,17,0,0,6,253,255,255,
  10,255,255,255,206,5,0,0,249,6,0,0,198,249,255,255,20,249,255,255,
  209,19,0,0,249,238,255,255,136,1,0,0,230,247,255,255,47,2,0,0,
  171,16,0,0,132,0,0,0,238,9,0,0,212,0,0,0,193,255,255,255,
  67,3,0,0,17,12,0,0,22,217,255,255,4,0,0,0,64,2,0,0,
  143,98,161,127,203,70,96,127,226,127,12,111,38,48,23,26,56,127,50,129,
  98,129,22,87,103,89,68,189,62,247,127,26,241,4,57,1,29,187,25,123,
  66,114,143,251,67,191,96,228,238,58,222,25,62,211,226,127,211,136,3,166,
  24,25,21,186,146,188,180,51,233,104,238,38,38,111,58,126,186,74,52,67,
  76,101,230,239,127,5,154,195,127,37,12,242,39,129,87,58,10,176,127,151,
  31,147,55,105,95,16,188,112,110,176,223,206,205,67,223,24,30,33,12,104,
  129,223,210,217,117,63,253,173,231,246,159,118,129,247,117,112,29,11,173,65,
  81,127,204,12,71,27,110,10,21,68,148,154,19,74,76,194,97,204,7,127,
  252,150,60,8,27,225,231,108,160,34,253,82,67,238,159,188,198,79,180,144,
  127,146,234,48,216,129,230,163,49,24,42,206,213,67,221,126,204,127,107,254,
  243,90,179,79,25,35,127,240,124,248,127,130,77,98,29,209,70,14,88,159,
  32,78,250,65,231,129,62,108,129,163,91,127,195,127,0,19,235,207,98,242,
  238,67,223,127,4,34,53,33,66,26,245,171,53,36,101,168,13,109,220,228,
  171,91,106,172,129,59,51,109,235,253,21,48,113,107,238,136,241,161,237,254,
  88,123,5,217,8,245,96,9,102,248,43,185,125,205,42,117,197,32,53,30,
  123,129,206,129,213,73,129,166,48,234,137,60,44,4,247,214,105,12,242,173,
  176,251,201,23,133,38,105,220,249,23,221,50,129,214,108,111,93,43,55,146,
  232,216,45,70,101,44,60,226,89,225,84,113,10,233,121,127,26,129,111,14,
  129,89,174,176,185,171,129,191,216,52,169,94,72,129,129,39,93,189,224,175,
  58,33,72,171,206,127,164,11,176,162,127,4,191,80,195,132,22,147,31,195,
  80,79,52,160,232,239,127,127,97,7,90,129,127,112,22,82,104,70,74,70,
  219,46,127,90,56,48,152,129,127,146,62,139,184,127,184,1,254,218,16,66,
  119,181,188,177,52,127,127,146,233,196,170,206,171,144,240,223,7,0,43,129,
  14,198,231,127,127,111,77,177,124,255,36,4,101,127,66,225,59,244,101,117,
  127,141,16,250,179,56,245,8,45,26,4,218,99,133,197,141,162,79,180,123,
  32,242,172,96,19,242,190,184,7,25,0,155,129,217,129,206,168,145,116,78,
  187,27,129,110,171,183,62,123,69,36,15,33,251,152,73,227,22,17,127,170,
  77,226,146,16,249,17,112,124,7,224,65,4,229,125,129,166,168,162,102,157,
  129,99,151,73,28,155,181,44,62,196,129,129,127,31,60,129,98,219,255,255,
  4,0,0,0,0,1,0,0,0,0,0,0,0,0,0,0,0,0,0,0,
  0,0,0,0,0,0,0,0,0,0,0,0,0,0,0,0,0,0,0,0,
  0,0,0,0,0,0,0,0,0,0,0,0,0,0,0,0,0,0,0,0,
  0,0,0,0,0,0,0,0,0,0,0,0,0,0,0,0,0,0,0,0,
  0,0,0,0,0,0,0,0,0,0,0,0,0,0,0,0,0,0,0,0,
  0,0,0,0,0,0,0,0,0,0,0,0,0,0,0,0,0,0,0,0,
  0,0,0,0,0,0,0,0,0,0,0,0,0,0,0,0,0,0,0,0,
  0,0,0,0,0,0,0,0,0,0,0,0,0,0,0,0,0,0,0,0,
  0,0,0,0,0,0,0,0,0,0,0,0,0,0,0,0,0,0,0,0,
  0,0,0,0,0,0,0,0,0,0,0,0,0,0,0,0,0,0,0,0,
  0,0,0,0,0,0,0,0,0,0,0,0,0,0,0,0,0,0,0,0,
  0,0,0,0,0,0,0,0,0,0,0,0,0,0,0,0,0,0,0,0,
  0,0,0,0,0,0,0,0,0,0,0,0,0,0,0,0,0,0,0,0,
  0,0,0,0,110,220,255,255,4,0,0,0,0,16,0,0,0,135,69,46,
  33,174,0,132,58,0,0,158,0,77,0,211,112,30,0,162,0,61,182,236,
  191,233,222,87,189,64,160,0,62,160,129,139,180,103,197,32,235,0,41,30,
  22,22,223,0,18,131,101,42,0,199,39,56,25,0,63,224,70,161,138,174,
  197,25,61,0,0,0,0,0,213,22,18,187,211,93,30,0,224,0,0,0,
  0,0,0,208,129,191,235,88,175,68,33,0,20,172,225,36,0,232,62,75,
  181,21,155,226,29,216,218,199,71,0,96,16,32,74,228,143,35,152,235,84,
  42,0,71,31,231,14,48,96,160,218,0,86,221,203,38,89,0,206,88,127,
  0,78,211,218,235,227,212,185,112,42,65,28,126,238,210,0,93,207,23,65,
  0,58,72,182,194,0,162,224,0,0,0,140,155,39,0,210,56,154,171,18,
  47,0,191,182,55,51,226,158,22,196,0,18,43,68,56,46,61,35,169,217,
  226,43,57,219,205,111,242,39,0,73,127,185,0,0,20,145,65,0,219,24,
  49,242,86,219,59,202,229,40,62,237,0,89,226,33,212,194,238,76,0,0,
  222,174,184,98,66,176,214,43,89,17,71,211,174,52,59,227,28,202,204,198,
  21,20,113,219,77,199,53,119,181,167,224,47,189,17,32,40,43,78,239,0,
  185,32,202,33,208,0,237,225,195,180,58,152,0,113,233,129,0,96,89,174,
  240,64,192,29,92,0,46,107,231,32,227,162,119,123,0,198,94,103,228,123,
  192,200,71,78,0,18,196,88,106,210,0,183,73,157,124,0,154,141,136,190,
  148,188,195,159,51,102,0,180,182,231,192,133,230,23,141,219,66,129,110,54,
  158,232,43,162,216,216,124,237,183,182,85,127,0,0,156,166,78,152,180,104,
  116,145,29,140,35,73,169,169,182,166,42,67,172,67,167,171,0,18,185,88,
  193,60,88,0,142,69,204,89,225,115,26,0,0,17,194,109,109,45,213,18,
  220,230,94,201,151,127,197,104,57,231,78,96,198,214,195,112,189,0,0,54,
  0,75,200,38,163,142,0,116,117,76,194,114,104,86,126,52,93,110,186,74,
  224,188,19,0,42,111,118,70,67,129,0,182,54,117,163,163,140,30,77,104,
  25,223,149,75,239,200,102,198,225,108,201,141,156,238,224,75,174,41,50,201,
  101,157,199,48,223,137,232,93,205,31,0,61,206,223,81,35,53,88,224,203,
  34,0,70,55,57,75,0,179,217,50,62,223,53,12,44,161,77,218,48,16,
  0,200,39,49,186,245,218,197,201,69,25,79,17,51,230,230,232,103,167,10,
  13,208,211,38,0,182,208,129,12,64,14,141,234,179,154,59,73,49,0,0,
  173,213,42,78,160,96,197,99,117,110,121,0,93,24,95,39,0,0,68,82,
  207,133,0,70,40,163,69,56,45,176,0,116,195,234,37,174,23,73,135,193,
  101,229,137,180,0,56,85,103,127,74,34,196,241,140,131,63,37,80,28,242,
  174,51,101,61,0,78,139,218,38,69,0,234,108,0,69,151,0,0,124,31,
  0,38,64,129,39,20,221,40,59,52,72,214,30,172,49,35,192,57,162,38,
  182,41,212,171,171,24,189,76,20,39,138,0,89,0,236,155,99,226,54,214,
  200,183,37,62,211,141,18,30,124,235,32,210,98,67,45,81,63,114,101,203,
  28,217,169,42,196,38,53,83,50,42,51,39,237,180,0,100,74,103,153,136,
  36,55,32,49,229,29,129,78,95,158,0,166,149,96,0,215,0,84,134,185,
  33,139,40,49,179,18,227,0,208,159,192,161,226,0,110,90,0,216,80,131,
  41,28,0,0,170,76,0,217,165,166,215,121,204,44,216,219,65,40,228,234,
  203,223,221,127,0,142,0,168,165,172,216,0,214,0,53,43,114,236,125,168,
  162,21,24,0,0,0,0,75,100,110,232,135,201,207,217,0,172,104,232,42,
  218,61,67,59,189,167,20,104,214,214,0,0,63,0,39,134,127,193,115,142,
  129,167,173,50,207,0,130,181,126,91,221,36,57,105,0,93,120,189,177,177,
  233,0,185,56,100,19,80,193,104,0,142,48,66,49,103,26,51,224,189,46,
  8,173,27,17,52,43,219,218,60,176,191,51,42,51,217,182,44,209,221,40,
  238,228,97,153,210,181,192,25,127,0,43,0,174,15,0,68,0,203,0,15,
  71,150,0,201,93,82,231,213,27,213,70,108,237,197,195,235,0,31,190,217,
  86,66,50,56,0,0,0,219,15,205,229,120,0,17,31,38,69,196,57,67,
  57,52,211,157,177,54,158,21,234,60,47,40,37,204,100,163,169,110,22,207,
  33,47,200,129,39,73,227,93,204,16,147,109,199,186,0,23,237,0,192,34,
  47,101,34,84,0,72,191,68,31,179,54,238,0,198,64,146,181,71,72,53,
  176,183,132,129,152,0,26,0,173,156,239,74,0,35,38,226,49,41,172,174,
  86,42,182,0,73,224,0,47,0,37,121,0,60,0,237,206,111,173,109,37,
  235,104,53,0,35,169,184,32,0,52,17,26,0,16,0,21,60,177,28,189,
  184,237,227,178,223,58,11,243,90,61,183,127,150,50,73,210,224,229,215,0,
  177,204,219,178,13,105,104,175,85,37,181,49,204,134,205,171,36,0,59,189,
  243,0,18,215,24,0,144,88,148,0,125,0,74,219,183,100,214,59,55,148,
  47,211,224,72,41,155,167,206,77,107,169,130,142,106,109,151,237,26,185,172,
  169,187,71,0,204,207,177,197,117,148,224,98,0,0,141,49,81,70,237,168,
  228,0,220,196,0,38,225,0,68,127,132,60,137,204,186,207,231,149,175,100,
  13,0,0,0,161,237,185,39,167,92,57,92,36,194,224,236,204,223,220,51,
  65,16,83,226,224,214,40,0,217,100,32,117,0,181,161,0,32,233,110,0,
  0,129,110,0,78,203,88,74,158,72,61,235,203,175,188,124,47,198,177,157,
  184,160,42,174,241,238,192,84,99,67,107,71,65,32,66,34,0,185,75,150,
  194,82,169,52,198,110,22,129,81,56,226,194,0,175,74,79,0,74,205,80,
  18,81,174,0,31,184,149,239,61,183,0,202,101,60,19,172,56,160,45,205,
  96,0,237,0,137,0,151,0,37,229,20,209,42,41,81,146,121,0,106,31,
  20,79,154,169,148,158,221,109,24,43,177,0,42,169,105,83,40,153,168,0,
  0,186,221,152,157,80,155,69,222,0,0,65,26,205,172,129,0,29,125,138,
  151,92,36,69,33,12,206,85,229,76,48,54,216,78,0,26,16,69,220,39,
  48,43,47,0,39,215,107,40,0,0,87,0,112,40,167,64,0,226,26,44,
  201,0,0,195,33,91,210,219,237,48,194,183,218,127,11,65,74,72,197,223,
  28,184,194,146,201,26,26,25,195,23,194,216,216,32,84,65,0,87,231,57,
  0,207,182,72,71,99,244,151,40,22,62,195,227,53,127,240,119,14,0,31,
  223,31,98,218,44,0,238,19,28,81,150,20,0,196,40,225,0,43,202,0,
  188,96,200,214,0,58,192,211,84,102,32,197,191,172,199,196,214,87,0,88,
  19,82,221,55,158,203,194,0,243,213,92,168,175,79,104,85,77,101,84,0,
  41,19,0,200,195,0,0,89,0,0,68,190,0,59,55,220,27,202,67,173,
  147,120,242,20,32,220,7,103,21,163,27,129,65,0,74,205,53,120,73,0,
  205,139,0,135,119,59,0,205,101,212,197,224,207,0,74,182,0,0,41,232,
  150,177,166,144,0,97,73,219,0,186,0,0,158,231,0,88,0,91,178,182,
  37,106,118,0,25,119,46,40,129,32,104,33,81,92,0,60,142,218,76,0,
  202,228,92,110,0,47,0,196,136,163,36,44,150,227,31,154,0,190,0,0,
  148,193,114,0,190,211,76,118,218,72,139,0,174,191,221,0,229,28,85,156,
  66,111,0,29,129,93,40,0,94,160,50,19,143,153,117,161,141,0,32,237,
  107,142,104,75,194,96,103,212,80,185,129,60,79,109,171,56,164,0,0,236,
  0,0,136,26,174,0,56,230,60,24,227,149,25,230,193,124,108,0,29,133,
  170,23,135,153,103,141,220,172,162,0,176,68,89,24,96,224,106,98,199,81,
  162,89,209,101,0,0,108,137,0,0,193,147,202,0,20,123,119,84,215,66,
  85,73,58,0,50,205,232,47,0,138,190,0,0,59,97,220,218,46,178,204,
  149,204,59,72,157,179,69,233,103,145,176,26,70,166,0,85,40,196,80,41,
  203,158,0,193,100,127,202,121,169,62,229,64,183,219,0,0,170,231,148,169,
  104,204,207,0,171,0,0,113,77,0,114,201,145,61,127,89,232,0,96,59,
  179,200,26,214,0,200,104,136,159,175,53,87,0,171,150,198,218,124,167,0,
  54,62,56,74,187,182,0,144,40,40,36,78,209,148,110,124,155,130,51,166,
  26,61,211,232,0,206,151,154,239,82,72,216,120,170,175,80,0,189,33,0,
  145,185,85,0,0,0,198,62,222,68,150,0,127,230,35,94,188,36,151,201,
  96,118,227,140,218,26,193,217,131,110,235,30,147,22,0,83,0,168,78,87,
  109,189,36,69,27,206,161,240,33,121,0,233,138,150,114,47,64,95,0,90,
  174,214,63,100,111,173,129,116,197,106,0,199,165,69,32,238,185,0,213,0,
  208,67,82,154,230,60,174,217,0,140,162,224,136,81,183,196,113,0,67,222,
  138,55,0,66,147,0,154,118,160,0,224,63,160,47,38,68,61,143,0,0,
  225,41,111,92,141,238,0,46,202,195,201,90,87,38,158,205,113,106,163,187,
  217,106,0,0,158,127,226,103,20,78,180,215,0,41,124,0,0,0,181,174,
  190,42,200,0,48,0,0,0,167,181,160,23,176,202,175,0,96,0,174,46,
  223,71,59,70,0,220,71,214,234,221,219,207,28,40,0,165,242,31,0,180,
  81,32,61,82,43,139,163,195,230,125,76,153,0,36,47,235,83,0,129,165,
  205,0,133,88,0,217,98,0,230,141,182,0,231,238,54,232,61,35,0,36,
  0,185,121,88,53,60,231,180,11,163,240,45,0,0,165,12,219,160,21,117,
  0,161,204,36,194,195,208,78,195,30,82,60,0,217,71,230,0,129,173,49,
  105,196,92,0,71,65,120,148,186,136,62,100,180,153,234,0,174,159,127,213,
  22,65,0,91,33,20,114,172,193,61,239,143,199,0,162,222,188,67,18,23,
  0,189,0,66,157,212,27,218,154,220,222,164,25,57,173,111,217,16,237,152,
  21,186,89,120,235,0,77,96,60,189,66,202,172,163,31,0,73,0,14,110,
  35,169,114,219,0,39,206,95,191,137,228,59,196,114,209,179,17,39,228,89,
  210,159,204,240,226,199,70,48,68,213,199,218,214,96,76,200,170,0,43,228,
  124,215,42,28,211,199,158,112,195,0,212,0,18,122,0,27,0,103,0,127,
  150,97,35,123,37,241,55,94,211,189,190,0,96,111,78,20,0,98,89,37,
  88,0,28,22,53,89,0,0,22,40,205,39,0,27,154,161,56,205,127,93,
  199,49,185,211,204,107,102,75,165,169,27,18,115,0,29,184,29,0,0,191,
  0,67,27,26,242,228,211,0,242,10,182,238,48,231,65,248,227,36,25,223,
  236,91,202,34,24,90,235,200,245,234,75,80,24,75,102,148,53,16,229,45,
  59,42,20,187,53,0,200,36,49,69,220,88,0,0,57,161,214,74,205,13,
  26,31,186,80,55,0,155,154,20,0,71,129,143,190,204,185,101,204,70,76,
  75,233,117,60,228,167,170,162,131,211,90,61,70,0,226,61,55,220,196,84,
  191,0,0,20,80,28,204,140,114,236,173,41,54,0,220,0,209,0,189,22,
  0,225,150,129,0,222,130,101,60,55,27,74,40,172,222,0,19,150,48,132,
  17,155,124,76,151,0,129,121,236,60,188,241,164,0,205,157,144,174,0,209,
  203,157,139,106,172,0,103,191,132,211,139,0,223,44,181,0,170,201,181,227,
  191,19,218,136,0,110,53,206,0,110,131,0,202,19,117,150,51,237,168,98,
  234,213,79,129,21,210,213,81,166,224,220,0,164,207,137,213,77,27,81,59,
  87,205,50,0,188,0,72,173,173,224,157,167,51,39,57,217,81,0,52,226,
  175,189,24,51,211,112,231,240,0,185,102,21,57,90,151,69,106,175,0,0,
  180,21,106,0,216,94,220,19,208,26,31,82,242,76,235,184,193,70,76,116,
  170,116,67,0,61,202,176,77,46,26,231,72,91,170,49,0,88,165,44,92,
  160,192,69,0,0,53,207,30,174,62,37,54,0,127,17,81,157,152,235,75,
  97,38,112,41,0,190,235,185,216,158,27,72,155,180,166,229,99,83,26,236,
  16,93,103,90,32,88,0,30,42,45,43,73,127,173,88,0,0,176,68,27,
  91,87,230,181,231,0,57,181,161,43,192,210,16,241,230,231,75,162,136,92,
  187,192,44,0,29,39,214,238,0,230,23,67,43,173,102,195,0,0,40,68,
  189,173,59,48,223,116,23,165,44,90,74,228,81,0,164,161,227,0,175,240,
  198,211,227,153,77,85,229,76,64,191,162,51,70,221,0,154,107,216,49,0,
  240,56,203,85,42,188,96,29,135,129,43,0,67,54,155,121,0,28,0,51,
  176,192,186,120,82,220,0,211,26,227,52,0,69,0,41,240,186,209,183,221,
  0,99,241,41,67,207,197,0,94,218,67,201,55,176,90,225,196,231,65,0,
  193,101,168,174,225,0,129,207,63,176,30,19,213,73,208,45,0,38,215,183,
  60,71,0,145,210,236,184,107,90,59,195,50,170,70,180,197,235,32,167,108,
  238,178,235,221,185,56,217,169,34,232,42,0,212,48,29,199,36,0,38,73,
  53,148,0,194,26,35,234,16,60,48,178,228,0,24,206,0,39,127,55,92,
  98,55,211,40,117,211,48,165,172,111,118,0,0,0,0,152,169,172,44,19,
  200,103,0,110,22,136,99,125,0,98,111,67,90,97,129,217,56,110,38,0,
  103,67,97,86,27,216,167,115,165,61,186,0,0,148,32,0,179,211,18,139,
  42,110,163,120,150,102,170,83,224,207,166,127,212,240,0,34,25,206,0,51,
  214,92,0,118,91,85,180,179,101,38,24,46,232,0,120,26,69,12,12,182,
  135,203,222,171,48,214,214,17,68,193,155,99,216,222,99,232,46,36,17,202,
  235,54,137,78,219,0,0,50,106,34,215,132,35,34,241,74,86,16,92,61,
  86,183,166,64,216,50,0,233,190,214,52,184,94,0,93,0,32,135,19,0,
  156,23,28,146,0,167,47,88,200,48,22,129,108,0,96,15,41,0,200,204,
  72,42,32,106,78,81,61,142,42,52,64,71,91,21,19,186,64,232,35,0,
  39,228,23,144,0,238,201,42,115,198,90,18,174,119,173,103,193,40,59,102,
  153,0,162,83,130,21,0,28,36,75,28,172,0,85,0,0,24,43,0,197,
  201,0,231,109,0,141,127,18,91,115,108,220,216,78,167,92,127,111,217,218,
  50,213,9,175,197,0,111,127,181,74,67,204,55,157,27,212,215,178,100,45,
  18,0,206,62,215,71,0,74,0,140,51,114,40,151,68,209,0,155,64,0,
  0,71,221,173,65,99,199,153,98,105,20,0,110,78,57,0,47,73,148,18,
  212,71,144,53,225,169,196,234,54,70,105,215,87,89,35,186,0,0,196,106,
  242,90,110,58,80,56,100,243,0,88,224,207,84,0,37,201,0,0,38,158,
  52,39,72,222,33,107,221,0,221,0,222,129,212,74,16,87,74,173,217,43,
  0,32,237,213,79,0,239,130,68,17,91,210,33,25,0,23,106,94,69,62,
  60,150,184,127,66,104,66,230,201,91,87,19,237,223,63,164,88,235,22,103,
  181,31,82,240,181,198,88,64,49,67,19,180,0,119,0,178,94,20,78,33,
  0,0,81,181,80,179,27,156,61,106,181,76,0,75,185,39,0,0,67,0,
  65,214,0,57,23,22,35,244,75,92,80,0,18,0,96,24,0,95,88,168,
  79,207,40,245,36,17,13,193,0,238,173,0,234,205,150,127,0,242,56,34,
  158,43,233,234,0,50,217,56,84,171,139,147,69,51,203,188,144,0,0,120,
  168,56,0,74,173,29,129,163,0,70,0,57,41,90,37,89,214,102,149,81,
  0,0,176,0,192,0,22,236,234,208,66,173,244,156,73,19,60,116,135,240,
  0,82,210,71,166,125,137,85,0,0,0,116,218,102,91,195,212,214,239,25,
  62,48,20,242,27,244,65,16,0,100,199,39,26,43,73,102,105,245,17,163,
  243,219,27,0,84,68,237,140,50,212,187,80,16,47,0,184,0,192,66,0,
  0,40,195,208,64,13,70,14,150,108,164,196,36,0,180,96,84,236,162,220,
  239,69,90,129,92,59,70,21,74,228,195,0,210,0,63,224,0,233,0,65,
  237,0,113,147,30,14,156,101,112,0,0,219,127,194,36,37,0,74,238,51,
  192,36,0,197,26,206,195,184,184,105,0,195,199,0,146,226,175,57,57,122,
  0,160,229,235,38,23,45,175,0,56,148,49,38,219,89,34,218,88,172,222,
  184,40,21,237,80,245,80,0,33,206,0,48,60,84,71,138,15,214,221,68,
  235,12,71,0,50,175,195,41,224,63,0,73,212,237,64,215,181,0,239,53,
  235,183,236,71,27,39,156,129,0,0,65,172,206,48,0,0,72,178,0,79,
  0,127,0,15,26,228,74,21,0,25,0,176,37,0,213,188,47,226,16,138,
  82,150,231,66,34,200,21,234,44,181,93,83,89,124,195,43,237,22,212,176,
  189,0,178,98,0,41,169,0,21,73,0,174,122,84,106,164,48,0,98,107,
  74,195,165,161,65,226,48,163,0,216,82,0,226,171,41,0,79,102,0,71,
  71,224,222,59,171,25,82,188,41,60,26,157,26,203,182,201,54,63,176,165,
  162,62,229,123,114,167,127,209,79,193,193,95,80,97,45,61,150,191,117,187,
  219,41,20,0,54,21,55,203,55,27,43,0,176,193,0,179,76,81,42,35,
  0,71,129,17,0,215,202,188,0,214,16,41,206,52,212,233,0,198,72,60,
  40,187,23,0,0,189,187,0,174,40,189,224,50,18,38,29,18,211,0,190,
  80,0,238,211,0,188,62,0,196,39,141,105,52,19,235,50,193,213,97,72,
  226,44,191,16,73,72,169,21,28,201,203,54,143,114,0,46,0,28,235,36,
  14,62,85,0,136,244,24,202,181,22,24,43,246,190,185,193,0,33,206,205,
  177,44,21,34,181,215,129,0,179,113,168,134,96,161,59,184,166,82,0,38,
  208,197,179,21,159,201,188,57,54,0,78,0,22,181,183,66,154,194,226,129,
  154,147,153,161,205,27,25,221,170,0,112,192,87,39,116,136,161,202,207,21,
  55,154,98,0,204,60,51,236,102,153,204,118,122,236,255,255,4,0,0,0,
  0,1,0,0,254,247,255,255,249,17,0,0,117,252,255,255,57,245,255,255,
  231,241,255,255,166,226,255,255,117,253,255,255,57,244,255,255,196,248,255,255,
  236,253,255,255,168,245,255,255,201,252,255,255,253,29,0,0,235,252,255,255,
  248,5,0,0,120,246,255,255,220,3,0,0,43,254,255,255,16,253,255,255,
  241,12,0,0,225,0,0,0,167,247,255,255,196,246,255,255,206,252,255,255,
  227,6,0,0,30,251,255,255,122,253,255,255,132,246,255,255,186,232,255,255,
  162,252,255,255,164,254,255,255,89,251,255,255,31,247,255,255,186,248,255,255,
  173,25,0,0,225,9,0,0,18,244,255,255,120,249,255,255,68,247,255,255,
  131,248,255,255,148,253,255,255,98,237,255,255,235,244,255,255,176,247,255,255,
  164,25,0,0,118,252,255,255,25,253,255,255,234,251,255,255,44,253,255,255,
  1,254,255,255,141,235,255,255,225,3,0,0,120,242,255,255,199,248,255,255,
  141,245,255,255,132,255,255,255,72,243,255,255,228,255,255,255,254,255,255,255,
  205,252,255,255,80,251,255,255,70,25,0,0,88,253,255,255,146,243,255,255,
  134,237,255,255,4,0,0,0,0,16,0,0,16,191,229,193,196,224,202,0,
  194,211,49,221,247,198,0,189,47,207,210,240,244,57,17,207,41,54,187,49,
  28,20,221,216,200,14,0,23,26,16,235,205,56,0,187,20,203,0,199,37,
  210,229,189,199,193,215,57,15,0,239,0,0,197,201,187,235,197,218,29,0,
  193,193,218,208,39,238,207,60,208,0,226,205,41,58,235,39,16,25,15,14,
  221,19,55,42,219,19,217,50,58,20,25,200,0,47,40,53,220,66,190,237,
  16,188,215,15,18,237,205,18,185,67,30,25,216,29,196,227,32,24,0,14,
  198,225,209,180,206,191,0,25,0,0,245,190,41,238,207,205,218,0,226,0,
  70,14,32,235,180,0,41,0,36,226,26,47,45,204,45,28,219,55,174,60,
  204,233,221,46,221,0,41,60,0,232,0,11,38,11,212,42,22,208,213,224,
  0,44,216,206,13,0,0,203,29,54,22,221,236,243,198,241,189,0,27,226,
  224,20,13,38,53,238,0,183,13,0,38,20,41,55,0,44,241,0,245,21,
  187,229,203,44,206,40,220,0,196,58,64,186,51,190,34,9,189,0,60,221,
  31,37,0,0,200,0,191,0,0,72,221,66,231,214,57,233,198,212,245,41,
  13,218,236,21,240,200,0,67,45,55,215,27,247,26,200,47,0,201,52,215,
  194,31,93,68,43,41,0,41,57,241,241,215,83,197,199,0,0,190,191,191,
  192,24,0,0,197,42,43,38,0,0,15,219,214,18,63,183,224,38,194,218,
  204,42,236,35,89,43,105,32,79,194,47,245,0,246,34,54,0,10,39,63,
  187,0,40,185,206,199,97,0,23,26,201,0,202,25,0,218,27,239,0,238,
  31,190,45,222,0,11,187,33,230,201,0,30,226,66,0,73,39,184,30,232,
  233,49,243,230,114,58,238,58,12,64,184,241,61,27,232,39,52,218,96,89,
  86,221,20,67,0,0,189,40,0,55,185,44,0,87,0,10,189,208,223,26,
  47,75,0,65,0,0,34,0,0,17,95,0,0,240,235,53,235,237,64,64,
  0,10,190,175,22,0,234,0,176,43,217,215,104,50,237,243,57,44,35,25,
  0,15,193,0,70,41,226,46,224,25,203,46,0,39,28,51,51,218,176,239,
  28,17,43,230,245,0,12,239,183,35,213,56,24,0,177,33,51,185,27,0,
  244,79,239,10,20,245,29,23,196,41,0,0,194,52,21,197,0,237,215,196,
  65,234,35,0,192,55,15,59,231,0,242,35,233,29,199,60,204,190,0,193,
  32,188,211,70,24,29,53,190,39,212,237,194,0,206,66,66,58,60,195,204,
  200,232,39,204,242,39,0,226,19,12,39,39,16,197,215,221,14,58,211,14,
  0,237,11,206,204,234,209,237,26,244,0,195,195,13,23,245,247,68,202,20,
  198,58,216,31,0,195,44,28,196,222,212,241,0,0,187,193,209,224,29,26,
  29,51,181,27,0,18,236,38,27,0,41,229,46,64,42,223,41,34,0,217,
  214,198,21,53,11,62,241,234,28,50,193,189,227,244,228,14,233,53,227,219,
  0,202,221,201,228,240,232,17,49,195,186,215,19,202,203,53,241,54,213,218,
  28,26,35,61,55,19,233,239,188,224,12,197,38,241,203,11,232,25,0,230,
  187,41,198,62,0,40,0,24,81,55,50,214,223,188,207,226,61,200,184,182,
  47,0,23,189,222,68,0,0,189,180,39,236,211,196,0,213,9,224,175,49,
  37,0,0,58,10,0,200,62,192,214,189,203,31,53,208,220,240,0,195,206,
  0,0,209,13,49,192,231,0,199,235,0,28,56,243,194,34,198,228,55,0,
  243,209,209,13,30,206,232,203,238,12,245,28,25,202,0,208,46,241,10,20,
  0,28,27,40,208,212,238,39,201,0,0,194,14,17,58,220,191,49,206,197,
  230,23,50,221,0,0,208,0,54,59,241,0,149,29,26,213,38,45,85,229,
  40,42,187,65,53,235,0,12,30,213,0,215,30,215,206,198,68,18,64,22,
  0,210,192,19,193,44,168,240,38,0,67,239,23,0,205,226,176,23,212,179,
  0,0,26,0,46,219,0,39,228,224,215,195,35,0,12,58,229,14,189,228,
  227,196,23,48,22,217,43,222,0,0,209,43,188,26,47,242,31,60,0,229,
  244,38,222,221,220,26,22,49,244,198,13,0,227,41,49,0,65,193,219,21,
  56,70,41,241,24,63,187,0,0,197,196,223,236,196,58,0,217,228,206,67,
  224,63,242,67,37,52,11,24,57,38,202,186,27,213,240,30,214,14,32,215,
  67,0,65,229,192,202,196,38,237,0,38,39,15,18,0,49,231,238,223,0,
  32,226,228,218,34,0,196,66,231,65,211,221,246,61,10,202,193,49,233,11,
  48,193,194,0,0,47,0,28,219,0,223,31,229,10,0,13,35,57,43,190,
  238,65,244,192,0,188,247,32,228,46,219,0,0,189,191,65,238,209,240,38,
  238,0,33,191,191,16,10,206,47,56,212,246,214,237,54,54,0,225,240,61,
  55,221,19,30,58,207,60,245,199,180,17,0,185,25,30,226,56,58,39,216,
  36,0,24,216,39,31,29,36,0,15,0,10,239,46,210,43,42,198,204,67,
  208,13,18,174,206,220,188,52,207,246,13,50,232,198,190,34,29,53,0,235,
  41,59,229,225,187,194,87,235,0,52,206,0,25,47,58,220,0,187,14,71,
  52,223,207,12,235,213,0,79,79,33,192,64,219,59,10,70,10,44,170,243,
  217,78,99,197,23,234,81,236,213,50,214,0,28,0,197,53,63,17,73,50,
  57,24,97,92,26,0,82,193,24,219,219,227,53,0,27,213,0,29,211,49,
  40,29,0,198,49,242,17,217,34,206,193,0,35,53,0,245,56,53,51,57,
  10,33,230,0,63,40,192,0,238,49,210,236,23,194,41,38,205,197,209,35,
  21,9,12,42,0,31,32,187,28,0,0,237,0,236,31,49,65,67,57,28,
  27,212,44,34,222,198,47,59,0,33,226,22,0,59,57,43,11,199,49,0,
  220,63,205,214,63,0,193,172,56,61,93,12,0,70,77,0,214,81,32,218,
  244,53,32,35,19,0,0,16,69,88,53,0,214,86,236,0,67,21,55,38,
  24,0,243,11,54,226,41,0,13,11,36,36,59,248,200,213,58,56,49,77,
  9,243,23,60,27,34,243,204,219,221,10,183,0,48,23,25,48,0,32,80,
  42,233,27,210,66,186,10,0,247,69,41,63,18,18,25,245,34,234,40,16,
  40,59,215,203,0,70,234,189,211,0,173,220,42,202,13,0,236,46,206,67,
  233,31,34,23,35,194,35,31,0,196,41,221,0,8,202,229,37,19,225,244,
  229,188,225,205,227,15,0,230,240,15,45,209,232,0,244,228,227,204,35,23,
  53,55,187,0,13,241,12,196,237,190,0,16,196,61,18,31,55,33,63,22,
  189,232,0,217,0,62,222,186,238,198,216,203,42,242,210,0,209,237,36,175,
  67,208,231,51,59,208,24,24,21,234,40,36,0,243,0,223,66,240,23,0,
  244,192,213,213,18,235,63,231,244,187,27,0,33,230,213,60,40,9,240,214,
  62,0,245,226,197,200,0,246,39,198,58,0,62,197,0,57,35,13,30,191,
  0,217,244,190,17,222,201,35,51,0,230,190,212,193,212,0,211,236,28,220,
  18,44,238,225,205,16,244,62,246,211,65,207,40,206,34,68,33,247,231,0,
  37,62,97,32,0,188,0,80,35,69,10,186,29,10,32,234,12,29,201,20,
  12,16,0,218,0,54,207,245,37,79,66,50,58,19,59,18,233,40,0,43,
  68,240,207,222,21,48,89,37,82,91,104,14,34,63,30,218,225,219,9,19,
  55,41,24,0,0,25,219,190,69,48,28,45,59,208,69,55,181,57,180,186,
  0,23,17,16,67,35,194,201,47,228,241,55,209,191,27,41,197,221,33,209,
  73,43,200,25,217,59,46,0,33,200,0,22,185,245,12,224,24,38,215,246,
  246,100,0,0,207,236,215,219,176,0,188,23,75,47,26,182,0,237,225,246,
  53,19,220,0,203,209,12,223,238,58,0,64,206,230,104,73,19,226,222,220,
  17,193,41,216,0,179,67,195,233,62,208,15,224,7,50,38,33,207,45,0,
  235,70,163,191,67,227,190,244,0,186,16,49,0,34,0,0,220,235,65,218,
  237,236,204,10,68,0,0,232,0,234,207,201,0,37,232,63,200,11,205,20,
  215,16,58,200,57,20,34,43,227,13,192,215,208,218,210,36,0,191,0,192,
  194,56,197,0,0,21,191,43,238,0,12,0,23,188,246,216,235,181,186,0,
  0,28,56,16,210,32,65,0,236,12,215,196,56,0,202,215,45,54,230,46,
  53,186,67,70,214,198,236,198,63,13,168,200,0,30,0,52,216,48,12,192,
  171,179,19,229,0,34,0,231,202,0,200,28,198,35,203,11,213,242,202,0,
  59,237,189,188,0,53,202,203,66,60,48,216,68,229,227,68,213,29,30,21,
  22,237,40,194,215,0,210,219,53,190,25,236,0,0,233,201,57,32,199,0,
  33,52,58,44,243,209,240,26,0,0,218,0,0,16,23,232,34,198,24,76,
  0,23,188,9,20,211,70,62,213,53,222,229,56,241,0,0,229,66,0,16,
  241,48,0,199,58,36,15,186,50,83,49,23,0,0,0,11,225,0,60,234,
  0,51,201,57,57,59,203,0,81,0,223,80,45,63,87,19,193,24,25,0,
  199,31,94,48,48,230,200,195,127,40,35,15,32,64,179,20,34,201,42,212,
  0,25,22,81,10,14,42,238,56,29,56,11,0,244,178,0,56,227,116,0,
  214,220,0,216,0,86,41,0,0,216,31,77,66,45,59,15,0,41,66,228,
  18,240,78,214,246,0,237,60,42,215,44,26,36,34,217,18,0,0,207,67,
  14,0,42,234,244,191,188,0,232,0,41,245,210,36,0,246,226,11,202,32,
  0,229,11,214,27,33,0,194,224,47,33,40,210,11,49,189,205,229,65,71,
  196,0,189,237,41,71,51,23,0,62,28,241,25,205,61,39,246,0,74,14,
  218,197,210,83,201,60,211,226,213,15,48,78,18,244,26,34,227,203,64,54,
  23,57,202,10,0,0,67,48,20,17,34,63,0,48,38,53,0,237,65,61,
  35,80,243,42,24,30,78,235,29,234,31,235,33,95,50,232,201,0,226,16,
  21,23,0,221,90,241,39,180,48,56,42,0,23,20,54,241,240,200,0,35,
  185,246,0,233,39,0,71,233,215,36,192,236,42,35,30,202,59,0,238,0,
  32,221,232,225,55,0,205,0,183,0,0,215,69,20,175,192,224,212,240,221,
  215,51,187,62,244,49,0,195,22,66,21,0,0,243,26,72,44,0,170,223,
  237,23,217,0,203,27,186,210,0,242,0,0,0,9,24,42,55,69,242,0,
  238,0,22,0,41,27,239,0,225,52,34,18,239,0,11,0,0,46,190,225,
  243,21,27,0,241,0,66,219,192,0,172,16,82,19,56,226,59,207,200,33,
  210,57,51,52,12,0,215,221,10,37,38,20,37,208,36,234,50,178,238,58,
  67,38,188,19,0,227,242,57,22,201,34,180,22,0,230,242,194,0,32,11,
  240,28,185,14,49,222,52,85,0,40,189,40,98,18,58,13,16,201,174,78,
  45,26,218,211,65,236,77,23,45,12,44,220,226,247,67,216,212,67,190,219,
  0,236,41,61,32,29,18,229,241,215,13,9,13,38,215,71,22,27,99,57,
  16,29,98,91,212,25,47,21,60,223,232,238,218,63,49,196,245,228,45,229,
  0,196,0,205,27,221,230,47,193,26,211,190,243,194,0,237,68,64,0,0,
  18,0,214,30,243,0,35,0,17,62,41,0,223,232,53,229,24,210,0,0,
  201,213,235,35,210,43,228,51,0,40,12,210,0,69,204,49,0,0,17,241,
  0,238,17,240,0,221,187,205,0,213,28,190,0,41,230,69,241,0,28,0,
  56,202,13,0,36,209,196,246,24,219,200,64,68,49,50,0,221,0,65,243,
  30,240,215,48,192,17,190,207,57,0,221,241,236,247,245,0,48,246,21,32,
  33,49,192,33,0,230,208,236,213,0,212,223,38,223,70,13,38,0,197,242,
  33,0,47,193,19,0,235,36,0,69,236,58,209,246,52,0,211,189,217,44,
  22,11,232,18,223,199,14,28,184,227,230,0,45,0,190,223,198,35,201,21,
  194,47,53,180,219,202,194,237,220,180,169,202,75,204,246,214,34,239,240,74,
  189,22,231,22,69,245,0,33,176,0,39,214,208,223,53,21,217,212,164,71,
  205,20,153,195,81,223,74,195,28,225,39,232,183,237,10,31,221,28,231,29,
  243,35,181,207,245,39,70,94,88,192,44,244,27,228,102,230,215,21,0,40,
  64,23,49,217,62,29,66,17,33,67,233,189,236,210,240,68,13,0,176,178,
  201,91,63,243,62,42,18,216,31,30,236,245,60,203,22,14,0,236,39,233,
  58,231,76,0,52,69,0,33,22,233,18,40,40,41,236,188,209,224,10,236,
  225,0,52,16,231,49,54,29,0,242,0,0,0,227,54,0,39,205,24,0,
  208,53,218,16,212,61,0,16,20,183,244,195,39,0,195,221,15,210,30,246,
  174,27,28,189,22,0,184,32,48,12,215,59,206,190,28,221,227,54,234,183,
  105,80,35,187,31,10,166,25,14,64,213,223,25,0,32,74,89,208,0,235,
  68,207,46,81,0,24,155,17,242,32,117,0,50,227,246,79,14,56,21,219,
  235,217,0,0,81,235,98,208,42,28,79,72,39,85,248,232,225,24,226,0,
  231,228,200,224,206,50,230,0,236,41,213,18,0,215,63,228,236,224,204,0,
  223,58,23,219,195,0,61,221,42,0,188,13,239,192,0,199,218,233,245,200,
  59,22,234,240,64,0,18,16,0,65,244,0,21,54,0,228,35,0,226,10,
  200,0,179,242,230,237,0,224,213,192,39,246,228,12,182,239,0,236,232,219,
  65,226,235,171,28,39,0,0,204,47,223,217,239,18,231,241,0,219,0,27,
  17,45,184,35,45,28,0,41,0,54,14,193,247,28,0,32,0,26,30,228,
  0,0,243,0,35,205,44,218,214,220,195,245,63,216,55,192,187,0,16,72,
  187,69,208,25,206,48,68,61,71,46,204,14,220,227,49,29,195,239,185,176,
  11,249,80,0,54,82,227,0,64,65,58,37,22,208,0,221,50,0,68,54,
  95,48,60,94,220,246,238,60,47,32,224,236,202,34,0,197,193,243,0,199,
  187,212,196,38,49,58,224,207,209,21,15,27,50,230,0,0,27,17,0,233,
  18,25,212,217,51,37,244,0,28,55,199,0,233,0,204,207,201,51,204,37,
  34,44,59,67,191,203,11,65,188,11,54,235,200,245,71,54,72,15,9,28,
  222,219,0,228,204,228,181,59,218,222,0,22,14,237,68,42,56,20,0,239,
  201,58,187,222,0,238,24,224,241,50,41,12,215,59,78,219,63,33,214,210,
  52,202,195,53,87,206,12,32,217,39,34,50,205,205,226,35,61,79,207,217,
  236,238,212,0,165,24,38,17,209,67,238,46,0,240,22,30,236,187,0,188,
  231,204,203,11,216,32,224,220,196,193,241,65,192,0,39,0,20,235,202,0,
  0,11,0,67,66,191,37,220,14,201,238,182,222,223,32,241,192,47,229,31,
  195,49,0,32,208,201,0,242,107,28,19,54,188,211,0,88,194,237,0,212,
  27,194,93,17,11,197,231,12,241,212,11,39,34,39,236,222,43,21,104,14,
  232,14,222,45,240,60,50,229,66,42,233,0,88,21,19,221,25,93,55,19,
  218,0,93,0,225,50,58,0,214,10,27,195,198,232,56,191,0,221,0,197,
  226,188,234,233,222,0,17,0,231,57,196,39,27,59,219,65,0,236,27,195,
  28,20,178,0,0,0,205,0,219,12,192,27,177,221,0,0,23,239,59,38,
  11,206,232,0,199,192,39,49,0,217,0,68,80,231,45,37,70,223,51,206,
  0,11,231,28,0,241,61,213,226,0,0,83,36,222,189,187,16,30,28,244,
  221,81,185,209,28,51,68,27,246,236,70,84,62,21,228,0,11,0,0,211,
  100,16,0,44,91,84,75,89,190,38,239,63,0,47,21,0,45,65,22,208,
  12,211,57,68,198,242,205,17,213,198,189,233,0,244,214,0,22,0,202,61,
  20,196,239,212,23,0,225,42,0,241,26,218,54,215,236,45,29,20,220,217,
  39,187,10,69,211,186,216,192,207,190,225,198,24,26,211,14,227,207,82,16,
  26,62,53,219,31,86,38,63,35,61,0,0,20,59,68,0,235,57,244,210,
  90,191,15,230,63,228,36,15,0,42,183,210,52,0,0,0,53,68,35,226,
  218,47,0,47,21,191,207,32,29,46,76,41,82,98,85,32,0,21,0,0,
  223,231,193,22,228,224,189,59,232,53,219,57,201,69,17,20,191,33,63,219,
  0,30,42,207,198,31,0,31,48,60,218,221,0,197,200,222,204,52,187,54,
  67,210,227,218,231,27,42,227,200,0,191,215,189,13,55,27,32,230,243,56,
  14,60,42,37,50,32,13,0,35,40,61,221,205,0,41,21,198,26,239,13,
  198,59,226,224,198,199,35,195,0,203,0,31,0,27,67,12,19,35,0,207,
  12,52,223,236,13,9,224,22,199,64,60,61,19,37,66,63,225,0,0,0,
  0,15,213,240,215,220,0,45,228,28,224,46,14,20,43,193,226,52,208,42,
  0,30,169,0,0,19,197,230,30,243,237,18,226,25,10,222,213,208,204,0,
  29,45,43,42,232,217,0,12,67,222,229,221,241,221,29,211,207,232,225,38,
  55,228,205,195,197,245,39,179,0,242,0,18,13,183,211,40,62,23,20,0,
  106,61,56,207,33,228,169,61,0,238,25,195,23,63,54,85,67,53,40,242,
  45,244,49,14,55,52,233,212,60,207,24,227,0,37,72,40,29,226,0,240,
  64,0,63,0,13,249,226,48,85,232,61,13,224,53,86,0,233,11,183,0,
  47,30,59,67,208,189,191,55,15,200,62,219,213,181,221,217,183,12,209,179,
  46,12,212,27,184,0,225,0,0,20,101,0,234,0,0,207,66,215,167,216,
  17,174,53,223,0,50,36,187,239,212,0,204,176,175,0,48,43,78,0,26,
  49,197,9,37,26,36,206,52,224,223,13,0,192,203,235,234,62,0,225,64,
  232,214,51,0,201,233,186,196,32,44,194,49,39,188,16,218,49,193,198,0,
  22,212,0,190,211,246,197,206,50,32,239,234,218,224,10,12,200,65,20,0,
  18,241,23,192,63,245,201,242,197,0,0,49,43,211,26,222,200,0,183,0,
  10,0,47,0,35,16,0,203,47,233,22,0,57,242,243,201,205,18,211,0,
  69,207,230,208,33,16,9,0,226,48,212,48,27,12,233,201,32,207,29,194,
  0,0,172,184,53,22,189,0,146,253,255,255,4,0,0,0,0,1,0,0,
  128,246,255,255,173,229,255,255,100,236,255,255,241,240,255,255,196,38,0,0,
  199,52,0,0,10,241,255,255,127,56,0,0,120,247,255,255,202,231,255,255,
  237,252,255,255,169,3,0,0,187,240,255,255,150,42,0,0,168,252,255,255,
  63,254,255,255,190,249,255,255,56,239,255,255,110,244,255,255,100,252,255,255,
  61,2,0,0,188,234,255,255,170,6,0,0,17,249,255,255,4,247,255,255,
  166,247,255,255,68,9,0,0,219,53,0,0,66,250,255,255,233,30,0,0,
  138,251,255,255,153,239,255,255,249,249,255,255,119,252,255,255,218,3,0,0,
  161,41,0,0,216,249,255,255,23,55,0,0,206,247,255,255,255,231,255,255,
  105,252,255,255,94,234,255,255,82,45,0,0,156,244,255,255,12,251,255,255,
  252,223,255,255,7,251,255,255,232,240,255,255,110,250,255,255,122,247,255,255,
  87,245,255,255,47,12,0,0,199,245,255,255,202,237,255,255,87,247,255,255,
  103,249,255,255,189,245,255,255,100,252,255,255,94,254,255,255,106,229,255,255,
  23,235,255,255,168,48,0,0,36,252,255,255,153,249,255,255,158,254,255,255,
  4,0,0,0,128,0,0,0,84,0,220,193,205,196,82,166,0,201,30,165,
  233,222,214,58,21,205,83,189,0,70,226,39,181,243,0,0,189,199,52,240,
  73,26,69,157,182,0,40,14,176,175,156,127,34,91,197,210,44,60,27,198,
  57,38,109,197,119,0,16,37,236,153,59,217,218,15,192,71,88,77,21,28,
  198,0,59,0,192,105,173,27,28,0,214,217,139,21,52,32,60,143,92,104,
  209,111,69,196,219,191,223,24,211,94,158,31,177,50,77,0,62,232,221,20,
  137,49,0,47,187,64,197,178,0,59,83,0,159,0,0,0,42,255,255,255,
  4,0,0,0,8,0,0,0,62,245,255,255,194,10,0,0,62,255,255,255,
  4,0,0,0,8,0,0,0,1,0,0,0,2,0,0,0,172,204,255,255,
  176,204,255,255,15,0,0,0,77,76,73,82,32,67,111,110,118,101,114,116,
  101,100,46,0,1,0,0,0,20,0,0,0,0,0,14,0,24,0,20,0,
  16,0,12,0,8,0,4,0,14,0,0,0,20,0,0,0,28,0,0,0,
  0,4,0,0,4,4,0,0,8,4,0,0,4,0,0,0,109,97,105,110,
  0,0,0,0,14,0,0,0,156,3,0,0,56,3,0,0,216,2,0,0,
  136,2,0,0,68,2,0,0,0,2,0,0,188,1,0,0,120,1,0,0,
  52,1,0,0,240,0,0,0,188,0,0,0,120,0,0,0,64,0,0,0,
  4,0,0,0,10,253,255,255,28,0,0,0,0,0,0,9,28,0,0,0,
  32,0,0,0,5,0,0,0,0,0,6,0,8,0,4,0,6,0,0,0,
  0,0,128,63,1,0,0,0,33,0,0,0,1,0,0,0,32,0,0,0,
  66,253,255,255,20,0,0,0,0,0,0,8,16,0,0,0,20,0,0,0,
  4,0,0,0,144,205,255,255,1,0,0,0,32,0,0,0,3,0,0,0,
  31,0,0,0,3,0,0,0,2,0,0,0,118,253,255,255,28,0,0,0,
  0,0,0,8,28,0,0,0,32,0,0,0,4,0,0,0,0,0,6,0,
  8,0,7,0,6,0,0,0,0,0,0,1,1,0,0,0,31,0,0,0,
  3,0,0,0,30,0,0,0,5,0,0,0,4,0,0,0,182,253,255,255,
  20,0,0,0,0,0,0,27,16,0,0,0,20,0,0,0,3,0,0,0,
  4,206,255,255,1,0,0,0,30,0,0,0,2,0,0,0,29,0,0,0,
  1,0,0,0,134,253,255,255,16,0,0,0,0,0,0,1,28,0,0,0,
  32,0,0,0,128,254,255,255,0,0,0,1,1,0,0,0,1,0,0,0,
  0,0,0,1,1,0,0,0,29,0,0,0,3,0,0,0,28,0,0,0,
  7,0,0,0,6,0,0,0,38,254,255,255,20,0,0,0,0,0,0,2,
  28,0,0,0,32,0,0,0,2,0,0,0,116,254,255,255,1,0,0,0,
  1,0,0,0,1,0,0,0,1,0,0,0,28,0,0,0,3,0,0,0,
  27,0,0,0,9,0,0,0,8,0,0,0,102,254,255,255,20,0,0,0,
  0,0,0,5,36,0,0,0,40,0,0,0,1,0,0,0,86,254,255,255,
  2,0,0,0,2,0,0,0,2,0,0,0,2,0,0,0,0,0,0,1,
  1,0,0,0,27,0,0,0,1,0,0,0,26,0,0,0,70,254,255,255,
  16,0,0,0,0,0,0,1,28,0,0,0,32,0,0,0,64,255,255,255,
  0,0,0,1,1,0,0,0,1,0,0,0,0,0,0,1,1,0,0,0,
  26,0,0,0,3,0,0,0,25,0,0,0,11,0,0,0,10,0,0,0,
  230,254,255,255,20,0,0,0,0,0,0,2,28,0,0,0,32,0,0,0,
  2,0,0,0,52,255,255,255,1,0,0,0,1,0,0,0,1,0,0,0,
  1,0,0,0,25,0,0,0,3,0,0,0,24,0,0,0,13,0,0,0,
  12,0,0,0,38,255,255,255,20,0,0,0,0,0,0,5,36,0,0,0,
  40,0,0,0,1,0,0,0,22,255,255,255,2,0,0,0,2,0,0,0,
  2,0,0,0,2,0,0,0,0,0,0,1,1,0,0,0,24,0,0,0,
  1,0,0,0,23,0,0,0,6,255,255,255,28,0,0,0,0,0,0,1,
  40,0,0,0,44,0,0,0,12,0,20,0,19,0,12,0,8,0,7,0,
  12,0,0,0,0,0,0,1,1,0,0,0,1,0,0,0,0,0,0,1,
  1,0,0,0,23,0,0,0,3,0,0,0,22,0,0,0,15,0,0,0,
  14,0,0,0,178,255,255,255,32,0,0,0,0,0,0,2,40,0,0,0,
  44,0,0,0,2,0,0,0,12,0,16,0,0,0,12,0,8,0,4,0,
  12,0,0,0,1,0,0,0,1,0,0,0,1,0,0,0,1,0,0,0,
  22,0,0,0,3,0,0,0,21,0,0,0,17,0,0,0,16,0,0,0,
  0,0,14,0,26,0,20,0,16,0,12,0,11,0,4,0,14,0,0,0,
  36,0,0,0,0,0,0,5,52,0,0,0,56,0,0,0,1,0,0,0,
  0,0,14,0,24,0,23,0,16,0,12,0,8,0,4,0,14,0,0,0,
  2,0,0,0,2,0,0,0,2,0,0,0,2,0,0,0,0,0,0,1,
  1,0,0,0,21,0,0,0,1,0,0,0,20,0,0,0,0,0,14,0,
  20,0,0,0,16,0,12,0,11,0,4,0,14,0,0,0,28,0,0,0,
  0,0,0,1,36,0,0,0,40,0,0,0,12,0,16,0,0,0,12,0,
  8,0,7,0,12,0,0,0,0,0,0,1,1,0,0,0,1,0,0,0,
  1,0,0,0,20,0,0,0,3,0,0,0,0,0,0,0,19,0,0,0,
  18,0,0,0,1,0,0,0,33,0,0,0,1,0,0,0,0,0,0,0,
  34,0,0,0,108,47,0,0,224,46,0,0,72,46,0,0,212,45,0,0,
  88,45,0,0,236,44,0,0,112,41,0,0,244,37,0,0,128,34,0,0,
  220,30,0,0,96,27,0,0,228,23,0,0,232,21,0,0,216,19,0,0,
  224,17,0,0,228,15,0,0,168,14,0,0,96,13,0,0,48,12,0,0,
  4,11,0,0,232,9,0,0,84,9,0,0,168,8,0,0,84,7,0,0,
  192,6,0,0,20,6,0,0,200,4,0,0,52,4,0,0,136,3,0,0,
  100,2,0,0,216,1,0,0,36,1,0,0,128,0,0,0,4,0,0,0,
  50,209,255,255,0,0,0,1,24,0,0,0,32,0,0,0,60,0,0,0,
  34,0,0,0,0,0,0,9,80,0,0,0,2,0,0,0,255,255,255,255,
  2,0,0,0,20,209,255,255,8,0,0,0,16,0,0,0,1,0,0,0,
  128,255,255,255,255,255,255,255,1,0,0,0,0,0,128,59,25,0,0,0,
  83,116,97,116,101,102,117,108,80,97,114,116,105,116,105,111,110,101,100,67,
  97,108,108,58,48,0,0,0,2,0,0,0,1,0,0,0,2,0,0,0,
  170,209,255,255,0,0,0,1,24,0,0,0,32,0,0,0,64,0,0,0,
  33,0,0,0,0,0,0,9,120,0,0,0,2,0,0,0,255,255,255,255,
  2,0,0,0,140,209,255,255,8,0,0,0,20,0,0,0,1,0,0,0,
  244,255,255,255,255,255,255,255,0,0,0,0,1,0,0,0,123,128,98,60,
  60,0,0,0,109,111,100,101,108,95,102,117,108,108,47,102,117,108,108,95,
  111,117,116,112,117,116,47,77,97,116,77,117,108,59,109,111,100,101,108,95,
  102,117,108,108,47,102,117,108,108,95,111,117,116,112,117,116,47,66,105,97,
  115,65,100,100,0,0,0,0,2,0,0,0,1,0,0,0,2,0,0,0,
  74,210,255,255,0,0,0,1,24,0,0,0,32,0,0,0,64,0,0,0,
  32,0,0,0,0,0,0,9,136,0,0,0,2,0,0,0,255,255,255,255,
  64,0,0,0,44,210,255,255,8,0,0,0,20,0,0,0,1,0,0,0,
  128,255,255,255,255,255,255,255,0,0,0,0,1,0,0,0,157,188,131,59,
  76,0,0,0,109,111,100,101,108,95,102,117,108,108,47,100,101,110,115,101,
  95,49,47,77,97,116,77,117,108,59,109,111,100,101,108,95,102,117,108,108,
  47,100,101,110,115,101,95,49,47,82,101,108,117,59,109,111,100,101,108,95,
  102,117,108,108,47,100,101,110,115,101,95,49,47,66,105,97,115,65,100,100,
  0,0,0,0,2,0,0,0,1,0,0,0,64,0,0,0,250,210,255,255,
  0,0,0,1,24,0,0,0,32,0,0,0,60,0,0,0,31,0,0,0,
  0,0,0,9,96,0,0,0,2,0,0,0,255,255,255,255,64,0,0,0,
  220,210,255,255,8,0,0,0,16,0,0,0,1,0,0,0,128,255,255,255,
  255,255,255,255,1,0,0,0,43,105,9,59,42,0,0,0,109,111,100,101,
  108,95,102,117,108,108,47,103,108,111,98,97,108,95,97,118,101,114,97,103,
  101,95,112,111,111,108,105,110,103,50,100,95,49,47,77,101,97,110,0,0,
  2,0,0,0,1,0,0,0,64,0,0,0,130,211,255,255,0,0,0,1,
  24,0,0,0,40,0,0,0,72,0,0,0,30,0,0,0,0,0,0,9,
  240,0,0,0,4,0,0,0,255,255,255,255,8,0,0,0,8,0,0,0,
  64,0,0,0,108,211,255,255,8,0,0,0,20,0,0,0,1,0,0,0,
  128,255,255,255,255,255,255,255,0,0,0,0,1,0,0,0,66,246,109,59,
  172,0,0,0,109,111,100,101,108,95,102,117,108,108,47,115,101,112,97,114,
  97,98,108,101,95,99,111,110,118,50,100,95,50,47,82,101,108,117,59,109,
  111,100,101,108,95,102,117,108,108,47,115,101,112,97,114,97,98,108,101,95,
  99,111,110,118,50,100,95,50,47,66,105,97,115,65,100,100,59,109,111,100,
  101,108,95,102,117,108,108,47,115,101,112,97,114,97,98,108,101,95,99,111,
  110,118,50,100,95,50,47,115,101,112,97,114,97,98,108,101,95,99,111,110,
  118,50,100,59,109,111,100,101,108,95,102,117,108,108,47,115,101,112,97,114,
  97,98,108,101,95,99,111,110,118,50,100,95,50,47,66,105,97,115,65,100,
  100,47,82,101,97,100,86,97,114,105,97,98,108,101,79,112,0,0,0,0,
  4,0,0,0,1,0,0,0,8,0,0,0,8,0,0,0,64,0,0,0,
  162,212,255,255,0,0,0,1,24,0,0,0,40,0,0,0,68,0,0,0,
  29,0,0,0,0,0,0,9,120,0,0,0,4,0,0,0,255,255,255,255,
  8,0,0,0,8,0,0,0,64,0,0,0,140,212,255,255,8,0,0,0,
  16,0,0,0,1,0,0,0,37,0,0,0,0,0,0,0,1,0,0,0,
  11,238,151,59,57,0,0,0,109,111,100,101,108,95,102,117,108,108,47,115,
  101,112,97,114,97,98,108,101,95,99,111,110,118,50,100,95,50,47,115,101,
  112,97,114,97,98,108,101,95,99,111,110,118,50,100,47,100,101,112,116,104,
  119,105,115,101,49,0,0,0,4,0,0,0,1,0,0,0,8,0,0,0,
  8,0,0,0,64,0,0,0,74,213,255,255,0,0,0,1,24,0,0,0,
  40,0,0,0,68,0,0,0,28,0,0,0,0,0,0,9,96,0,0,0,
  4,0,0,0,255,255,255,255,8,0,0,0,8,0,0,0,64,0,0,0,
  52,213,255,255,8,0,0,0,16,0,0,0,1,0,0,0,128,255,255,255,
  255,255,255,255,1,0,0,0,159,102,66,59,34,0,0,0,109,111,100,101,
  108,95,102,117,108,108,47,109,97,120,95,112,111,111,108,105,110,103,50,100,
  95,50,47,77,97,120,80,111,111,108,0,0,4,0,0,0,1,0,0,0,
  8,0,0,0,8,0,0,0,64,0,0,0,218,213,255,255,0,0,0,1,
  24,0,0,0,40,0,0,0,68,0,0,0,27,0,0,0,0,0,0,9,
  24,1,0,0,4,0,0,0,255,255,255,255,16,0,0,0,16,0,0,0,
  64,0,0,0,196,213,255,255,8,0,0,0,16,0,0,0,1,0,0,0,
  128,255,255,255,255,255,255,255,1,0,0,0,159,102,66,59,219,0,0,0,
  109,111,100,101,108,95,102,117,108,108,47,115,101,112,97,114,97,98,108,101,
  95,99,111,110,118,50,100,95,49,47,82,101,108,117,59,109,111,100,101,108,
  95,102,117,108,108,47,115,101,112,97,114,97,98,108,101,95,99,111,110,118,
  50,100,95,49,47,66,105,97,115,65,100,100,59,109,111,100,101,108,95,102,
  117,108,108,47,115,101,112,97,114,97,98,108,101,95,99,111,110,118,50,100,
  95,50,47,115,101,112,97,114,97,98,108,101,95,99,111,110,118,50,100,59,
  109,111,100,101,108,95,102,117,108,108,47,115,101,112,97,114,97,98,108,101,
  95,99,111,110,118,50,100,95,49,47,115,101,112,97,114,97,98,108,101,95,
  99,111,110,118,50,100,59,109,111,100,101,108,95,102,117,108,108,47,115,101,
  112,97,114,97,98,108,101,95,99,111,110,118,50,100,95,49,47,66,105,97,
  115,65,100,100,47,82,101,97,100,86,97,114,105,97,98,108,101,79,112,0,
  4,0,0,0,1,0,0,0,16,0,0,0,16,0,0,0,64,0,0,0,
  34,215,255,255,0,0,0,1,24,0,0,0,40,0,0,0,68,0,0,0,
  26,0,0,0,0,0,0,9,120,0,0,0,4,0,0,0,255,255,255,255,
  16,0,0,0,16,0,0,0,32,0,0,0,12,215,255,255,8,0,0,0,
  16,0,0,0,1,0,0,0,231,255,255,255,255,255,255,255,1,0,0,0,
  74,110,248,59,57,0,0,0,109,111,100,101,108,95,102,117,108,108,47,115,
  101,112,97,114,97,98,108,101,95,99,111,110,118,50,100,95,49,47,115,101,
  112,97,114,97,98,108,101,95,99,111,110,118,50,100,47,100,101,112,116,104,
  119,105,115,101,50,0,0,0,4,0,0,0,1,0,0,0,16,0,0,0,
  16,0,0,0,32,0,0,0,202,215,255,255,0,0,0,1,24,0,0,0,
  40,0,0,0,68,0,0,0,25,0,0,0,0,0,0,9,96,0,0,0,
  4,0,0,0,255,255,255,255,16,0,0,0,16,0,0,0,32,0,0,0,
  180,215,255,255,8,0,0,0,16,0,0,0,1,0,0,0,128,255,255,255,
  255,255,255,255,1,0,0,0,31,241,90,59,34,0,0,0,109,111,100,101,
  108,95,102,117,108,108,47,109,97,120,95,112,111,111,108,105,110,103,50,100,
  95,49,47,77,97,120,80,111,111,108,0,0,4,0,0,0,1,0,0,0,
  16,0,0,0,16,0,0,0,32,0,0,0,90,216,255,255,0,0,0,1,
  24,0,0,0,40,0,0,0,72,0,0,0,24,0,0,0,0,0,0,9,
  32,1,0,0,4,0,0,0,255,255,255,255,32,0,0,0,32,0,0,0,
  32,0,0,0,68,216,255,255,8,0,0,0,20,0,0,0,1,0,0,0,
  128,255,255,255,255,255,255,255,0,0,0,0,1,0,0,0,31,241,90,59,
  221,0,0,0,109,111,100,101,108,95,102,117,108,108,47,115,101,112,97,114,
  97,98,108,101,95,99,111,110,118,50,100,47,82,101,108,117,59,109,111,100,
  101,108,95,102,117,108,108,47,115,101,112,97,114,97,98,108,101,95,99,111,
  110,118,50,100,47,66,105,97,115,65,100,100,59,109,111,100,101,108,95,102,
  117,108,108,47,115,101,112,97,114,97,98,108,101,95,99,111,110,118,50,100,
  95,49,47,115,101,112,97,114,97,98,108,101,95,99,111,110,118,50,100,47,
  100,101,112,116,104,119,105,115,101,59,109,111,100,101,108,95,102,117,108,108,
  47,115,101,112,97,114,97,98,108,101,95,99,111,110,118,50,100,47,115,101,
  112,97,114,97,98,108,101,95,99,111,110,118,50,100,59,109,111,100,101,108,
  95,102,117,108,108,47,115,101,112,97,114,97,98,108,101,95,99,111,110,118,
  50,100,47,66,105,97,115,65,100,100,47,82,101,97,100,86,97,114,105,97,
  98,108,101,79,112,0,0,0,4,0,0,0,1,0,0,0,32,0,0,0,
  32,0,0,0,32,0,0,0,170,217,255,255,0,0,0,1,24,0,0,0,
  40,0,0,0,72,0,0,0,23,0,0,0,0,0,0,9,120,0,0,0,
  4,0,0,0,255,255,255,255,32,0,0,0,32,0,0,0,16,0,0,0,
  148,217,255,255,8,0,0,0,20,0,0,0,1,0,0,0,1,0,0,0,
  0,0,0,0,0,0,0,0,1,0,0,0,43,255,0,60,55,0,0,0,
  109,111,100,101,108,95,102,117,108,108,47,115,101,112,97,114,97,98,108,101,
  95,99,111,110,118,50,100,47,115,101,112,97,114,97,98,108,101,95,99,111,
  110,118,50,100,47,100,101,112,116,104,119,105,115,101,50,0,4,0,0,0,
  1,0,0,0,32,0,0,0,32,0,0,0,16,0,0,0,82,218,255,255,
  0,0,0,1,24,0,0,0,40,0,0,0,68,0,0,0,22,0,0,0,
  0,0,0,9,96,0,0,0,4,0,0,0,255,255,255,255,32,0,0,0,
  32,0,0,0,16,0,0,0,60,218,255,255,8,0,0,0,16,0,0,0,
  1,0,0,0,128,255,255,255,255,255,255,255,1,0,0,0,96,110,120,59,
  32,0,0,0,109,111,100,101,108,95,102,117,108,108,47,109,97,120,95,112,
  111,111,108,105,110,103,50,100,47,77,97,120,80,111,111,108,0,0,0,0,
  4,0,0,0,1,0,0,0,32,0,0,0,32,0,0,0,16,0,0,0,
  226,218,255,255,0,0,0,1,24,0,0,0,40,0,0,0,68,0,0,0,
  21,0,0,0,0,0,0,9,232,0,0,0,4,0,0,0,255,255,255,255,
  64,0,0,0,64,0,0,0,16,0,0,0,204,218,255,255,8,0,0,0,
  16,0,0,0,1,0,0,0,128,255,255,255,255,255,255,255,1,0,0,0,
  96,110,120,59,169,0,0,0,109,111,100,101,108,95,102,117,108,108,47,99,
  111,110,118,50,100,47,82,101,108,117,59,109,111,100,101,108,95,102,117,108,
  108,47,99,111,110,118,50,100,47,66,105,97,115,65,100,100,59,109,111,100,
  101,108,95,102,117,108,108,47,115,101,112,97,114,97,98,108,101,95,99,111,
  110,118,50,100,47,115,101,112,97,114,97,98,108,101,95,99,111,110,118,50,
  100,47,100,101,112,116,104,119,105,115,101,59,109,111,100,101,108,95,102,117,
  108,108,47,99,111,110,118,50,100,47,67,111,110,118,50,68,59,109,111,100,
  101,108,95,102,117,108,108,47,99,111,110,118,50,100,47,66,105,97,115,65,
  100,100,47,82,101,97,100,86,97,114,105,97,98,108,101,79,112,0,0,0,
  4,0,0,0,1,0,0,0,64,0,0,0,64,0,0,0,16,0,0,0,
  130,220,255,255,0,0,0,1,20,0,0,0,232,0,0,0,20,0,0,0,
  0,0,0,9,252,0,0,0,204,219,255,255,8,0,0,0,140,0,0,0,
  16,0,0,0,0,0,0,0,0,0,0,0,0,0,0,0,0,0,0,0,
  0,0,0,0,0,0,0,0,0,0,0,0,0,0,0,0,0,0,0,0,
  0,0,0,0,0,0,0,0,0,0,0,0,0,0,0,0,0,0,0,0,
  0,0,0,0,0,0,0,0,0,0,0,0,0,0,0,0,0,0,0,0,
  0,0,0,0,0,0,0,0,0,0,0,0,0,0,0,0,0,0,0,0,
  0,0,0,0,0,0,0,0,0,0,0,0,0,0,0,0,0,0,0,0,
  0,0,0,0,0,0,0,0,0,0,0,0,0,0,0,0,16,0,0,0,
  34,94,206,58,181,102,173,58,42,178,246,58,48,1,0,59,243,225,186,58,
  0,226,254,58,23,52,226,58,76,110,222,58,97,202,244,58,219,154,226,58,
  218,87,7,59,81,209,144,58,161,123,217,58,83,51,208,58,45,141,13,59,
  137,58,2,59,24,0,0,0,109,111,100,101,108,95,102,117,108,108,47,99,
  111,110,118,50,100,47,67,111,110,118,50,68,0,0,0,0,4,0,0,0,
  16,0,0,0,3,0,0,0,3,0,0,0,1,0,0,0,170,221,255,255,
  0,0,0,1,20,0,0,0,232,0,0,0,19,0,0,0,0,0,0,2,
  12,1,0,0,244,220,255,255,8,0,0,0,140,0,0,0,16,0,0,0,
  0,0,0,0,0,0,0,0,0,0,0,0,0,0,0,0,0,0,0,0,
  0,0,0,0,0,0,0,0,0,0,0,0,0,0,0,0,0,0,0,0,
  0,0,0,0,0,0,0,0,0,0,0,0,0,0,0,0,0,0,0,0,
  0,0,0,0,0,0,0,0,0,0,0,0,0,0,0,0,0,0,0,0,
  0,0,0,0,0,0,0,0,0,0,0,0,0,0,0,0,0,0,0,0,
  0,0,0,0,0,0,0,0,0,0,0,0,0,0,0,0,0,0,0,0,
  0,0,0,0,0,0,0,0,0,0,0,0,16,0,0,0,80,45,207,54,
  202,20,174,54,213,169,247,54,178,129,0,55,145,157,187,54,227,225,255,54,
  47,23,227,54,154,77,223,54,34,192,245,54,90,126,227,54,186,223,7,55,
  180,98,145,54,248,85,218,54,88,4,209,54,73,27,14,55,71,189,2,55,
  40,0,0,0,109,111,100,101,108,95,102,117,108,108,47,99,111,110,118,50,
  100,47,66,105,97,115,65,100,100,47,82,101,97,100,86,97,114,105,97,98,
  108,101,79,112,0,0,0,0,1,0,0,0,16,0,0,0,214,222,255,255,
  0,0,0,1,20,0,0,0,232,0,0,0,18,0,0,0,0,0,0,9,
  24,1,0,0,162,238,255,255,3,0,0,0,8,0,0,0,136,0,0,0,
  16,0,0,0,0,0,0,0,0,0,0,0,0,0,0,0,0,0,0,0,
  0,0,0,0,0,0,0,0,0,0,0,0,0,0,0,0,0,0,0,0,
  0,0,0,0,0,0,0,0,0,0,0,0,0,0,0,0,0,0,0,0,
  0,0,0,0,0,0,0,0,0,0,0,0,0,0,0,0,0,0,0,0,
  0,0,0,0,0,0,0,0,0,0,0,0,0,0,0,0,0,0,0,0,
  0,0,0,0,0,0,0,0,0,0,0,0,0,0,0,0,0,0,0,0,
  0,0,0,0,0,0,0,0,0,0,0,0,16,0,0,0,133,143,0,59,
  115,27,8,59,229,22,14,59,239,15,18,59,20,247,53,59,77,68,10,59,
  90,201,232,58,237,41,23,59,250,29,86,59,135,210,76,59,229,101,70,59,
  116,130,29,59,178,239,11,59,67,125,248,58,80,155,69,59,154,18,106,59,
  55,0,0,0,109,111,100,101,108,95,102,117,108,108,47,115,101,112,97,114,
  97,98,108,101,95,99,111,110,118,50,100,47,115,101,112,97,114,97,98,108,
  101,95,99,111,110,118,50,100,47,100,101,112,116,104,119,105,115,101,49,0,
  4,0,0,0,1,0,0,0,3,0,0,0,3,0,0,0,16,0,0,0,
  26,224,255,255,0,0,0,1,20,0,0,0,232,0,0,0,17,0,0,0,
  0,0,0,2,24,1,0,0,100,223,255,255,8,0,0,0,140,0,0,0,
  16,0,0,0,0,0,0,0,0,0,0,0,0,0,0,0,0,0,0,0,
  0,0,0,0,0,0,0,0,0,0,0,0,0,0,0,0,0,0,0,0,
  0,0,0,0,0,0,0,0,0,0,0,0,0,0,0,0,0,0,0,0,
  0,0,0,0,0,0,0,0,0,0,0,0,0,0,0,0,0,0,0,0,
  0,0,0,0,0,0,0,0,0,0,0,0,0,0,0,0,0,0,0,0,
  0,0,0,0,0,0,0,0,0,0,0,0,0,0,0,0,0,0,0,0,
  0,0,0,0,0,0,0,0,0,0,0,0,0,0,0,0,16,0,0,0,
  237,132,249,54,70,21,4,55,113,227,9,55,105,190,13,55,208,149,48,55,
  200,45,6,55,109,231,225,54,202,177,18,55,91,201,79,55,66,196,70,55,
  64,136,64,55,73,218,24,55,138,204,7,55,124,36,241,54,168,195,63,55,
  241,38,99,55,54,0,0,0,109,111,100,101,108,95,102,117,108,108,47,115,
  101,112,97,114,97,98,108,101,95,99,111,110,118,50,100,47,115,101,112,97,
  114,97,98,108,101,95,99,111,110,118,50,100,47,100,101,112,116,104,119,105,
  115,101,0,0,1,0,0,0,16,0,0,0,82,225,255,255,0,0,0,1,
  20,0,0,0,164,1,0,0,16,0,0,0,0,0,0,9,204,1,0,0,
  156,224,255,255,8,0,0,0,8,1,0,0,32,0,0,0,0,0,0,0,
  0,0,0,0,0,0,0,0,0,0,0,0,0,0,0,0,0,0,0,0,
  0,0,0,0,0,0,0,0,0,0,0,0,0,0,0,0,0,0,0,0,
  0,0,0,0,0,0,0,0,0,0,0,0,0,0,0,0,0,0,0,0,
  0,0,0,0,0,0,0,0,0,0,0,0,0,0,0,0,0,0,0,0,
  0,0,0,0,0,0,0,0,0,0,0,0,0,0,0,0,0,0,0,0,
  0,0,0,0,0,0,0,0,0,0,0,0,0,0,0,0,0,0,0,0,
  0,0,0,0,0,0,0,0,0,0,0,0,0,0,0,0,0,0,0,0,
  0,0,0,0,0,0,0,0,0,0,0,0,0,0,0,0,0,0,0,0,
  0,0,0,0,0,0,0,0,0,0,0,0,0,0,0,0,0,0,0,0,
  0,0,0,0,0,0,0,0,0,0,0,0,0,0,0,0,0,0,0,0,
  0,0,0,0,0,0,0,0,0,0,0,0,0,0,0,0,0,0,0,0,
  0,0,0,0,0,0,0,0,0,0,0,0,0,0,0,0,0,0,0,0,
  0,0,0,0,0,0,0,0,0,0,0,0,32,0,0,0,237,11,96,59,
  143,199,26,59,249,192,140,59,10,32,50,59,144,158,99,59,158,5,57,59,
  193,39,129,59,195,118,111,59,242,168,55,59,48,196,95,59,181,16,67,59,
  196,153,80,59,116,247,108,59,140,225,80,59,112,187,158,59,162,16,132,59,
  242,230,41,59,115,235,129,59,150,69,119,59,50,135,120,59,21,229,60,59,
  56,24,89,59,47,136,51,59,237,110,83,59,13,240,98,59,55,52,130,59,
  4,214,79,59,3,116,40,59,58,245,63,59,56,83,82,59,146,131,50,59,
  224,32,53,59,44,0,0,0,109,111,100,101,108,95,102,117,108,108,47,115,
  101,112,97,114,97,98,108,101,95,99,111,110,118,50,100,47,115,101,112,97,
  114,97,98,108,101,95,99,111,110,118,50,100,0,0,0,0,4,0,0,0,
  32,0,0,0,1,0,0,0,1,0,0,0,16,0,0,0,74,227,255,255,
  0,0,0,1,20,0,0,0,168,1,0,0,15,0,0,0,0,0,0,2,
  212,1,0,0,148,226,255,255,8,0,0,0,12,1,0,0,32,0,0,0,
  0,0,0,0,0,0,0,0,0,0,0,0,0,0,0,0,0,0,0,0,
  0,0,0,0,0,0,0,0,0,0,0,0,0,0,0,0,0,0,0,0,
  0,0,0,0,0,0,0,0,0,0,0,0,0,0,0,0,0,0,0,0,
  0,0,0,0,0,0,0,0,0,0,0,0,0,0,0,0,0,0,0,0,
  0,0,0,0,0,0,0,0,0,0,0,0,0,0,0,0,0,0,0,0,
  0,0,0,0,0,0,0,0,0,0,0,0,0,0,0,0,0,0,0,0,
  0,0,0,0,0,0,0,0,0,0,0,0,0,0,0,0,0,0,0,0,
  0,0,0,0,0,0,0,0,0,0,0,0,0,0,0,0,0,0,0,0,
  0,0,0,0,0,0,0,0,0,0,0,0,0,0,0,0,0,0,0,0,
  0,0,0,0,0,0,0,0,0,0,0,0,0,0,0,0,0,0,0,0,
  0,0,0,0,0,0,0,0,0,0,0,0,0,0,0,0,0,0,0,0,
  0,0,0,0,0,0,0,0,0,0,0,0,0,0,0,0,0,0,0,0,
  0,0,0,0,0,0,0,0,0,0,0,0,0,0,0,0,0,0,0,0,
  32,0,0,0,144,202,225,55,29,252,155,55,145,217,13,56,34,131,179,55,
  82,100,229,55,117,118,186,55,58,41,2,56,34,84,241,55,18,23,185,55,
  68,130,225,55,146,149,196,55,156,57,210,55,217,207,238,55,244,129,210,55,
  223,247,31,56,232,23,5,56,165,57,171,55,114,238,2,56,134,50,249,55,
  163,118,250,55,165,93,190,55,255,200,218,55,21,238,180,55,107,20,213,55,
  115,180,228,55,199,55,3,56,86,116,209,55,211,195,169,55,229,115,193,55,
  128,246,211,55,112,231,179,55,244,137,182,55,50,0,0,0,109,111,100,101,
  108,95,102,117,108,108,47,115,101,112,97,114,97,98,108,101,95,99,111,110,
  118,50,100,47,66,105,97,115,65,100,100,47,82,101,97,100,86,97,114,105,
  97,98,108,101,79,112,0,0,1,0,0,0,32,0,0,0,62,229,255,255,
  0,0,0,1,20,0,0,0,172,1,0,0,14,0,0,0,0,0,0,9,
  224,1,0,0,10,245,255,255,3,0,0,0,8,0,0,0,12,1,0,0,
  32,0,0,0,0,0,0,0,0,0,0,0,0,0,0,0,0,0,0,0,
  0,0,0,0,0,0,0,0,0,0,0,0,0,0,0,0,0,0,0,0,
  0,0,0,0,0,0,0,0,0,0,0,0,0,0,0,0,0,0,0,0,
  0,0,0,0,0,0,0,0,0,0,0,0,0,0,0,0,0,0,0,0,
  0,0,0,0,0,0,0,0,0,0,0,0,0,0,0,0,0,0,0,0,
  0,0,0,0,0,0,0,0,0,0,0,0,0,0,0,0,0,0,0,0,
  0,0,0,0,0,0,0,0,0,0,0,0,0,0,0,0,0,0,0,0,
  0,0,0,0,0,0,0,0,0,0,0,0,0,0,0,0,0,0,0,0,
  0,0,0,0,0,0,0,0,0,0,0,0,0,0,0,0,0,0,0,0,
  0,0,0,0,0,0,0,0,0,0,0,0,0,0,0,0,0,0,0,0,
  0,0,0,0,0,0,0,0,0,0,0,0,0,0,0,0,0,0,0,0,
  0,0,0,0,0,0,0,0,0,0,0,0,0,0,0,0,0,0,0,0,
  0,0,0,0,0,0,0,0,0,0,0,0,0,0,0,0,0,0,0,0,
  0,0,0,0,32,0,0,0,229,79,194,58,109,41,179,58,93,62,166,58,
  162,161,221,58,74,198,7,59,128,102,24,59,95,236,230,58,170,36,240,58,
  98,114,134,58,7,125,61,59,85,241,180,58,66,15,229,58,35,15,13,59,
  167,49,240,58,197,148,235,58,70,232,216,58,183,224,206,58,227,33,196,58,
  231,187,16,59,179,111,31,59,74,63,213,58,223,138,240,58,188,70,132,58,
  210,17,247,58,35,96,170,58,145,234,159,58,60,78,231,58,84,253,205,58,
  246,65,202,58,38,216,181,58,247,189,205,58,31,86,137,58,57,0,0,0,
  109,111,100,101,108,95,102,117,108,108,47,115,101,112,97,114,97,98,108,101,
  95,99,111,110,118,50,100,95,49,47,115,101,112,97,114,97,98,108,101,95,
  99,111,110,118,50,100,47,100,101,112,116,104,119,105,115,101,49,0,0,0,
  4,0,0,0,1,0,0,0,3,0,0,0,3,0,0,0,32,0,0,0,
  74,231,255,255,0,0,0,1,20,0,0,0,164,1,0,0,13,0,0,0,
  0,0,0,2,216,1,0,0,148,230,255,255,8,0,0,0,8,1,0,0,
  32,0,0,0,0,0,0,0,0,0,0,0,0,0,0,0,0,0,0,0,
  0,0,0,0,0,0,0,0,0,0,0,0,0,0,0,0,0,0,0,0,
  0,0,0,0,0,0,0,0,0,0,0,0,0,0,0,0,0,0,0,0,
  0,0,0,0,0,0,0,0,0,0,0,0,0,0,0,0,0,0,0,0,
  0,0,0,0,0,0,0,0,0,0,0,0,0,0,0,0,0,0,0,0,
  0,0,0,0,0,0,0,0,0,0,0,0,0,0,0,0,0,0,0,0,
  0,0,0,0,0,0,0,0,0,0,0,0,0,0,0,0,0,0,0,0,
  0,0,0,0,0,0,0,0,0,0,0,0,0,0,0,0,0,0,0,0,
  0,0,0,0,0,0,0,0,0,0,0,0,0,0,0,0,0,0,0,0,
  0,0,0,0,0,0,0,0,0,0,0,0,0,0,0,0,0,0,0,0,
  0,0,0,0,0,0,0,0,0,0,0,0,0,0,0,0,0,0,0,0,
  0,0,0,0,0,0,0,0,0,0,0,0,0,0,0,0,0,0,0,0,
  0,0,0,0,0,0,0,0,0,0,0,0,0,0,0,0,0,0,0,0,
  32,0,0,0,14,47,166,54,7,58,153,54,176,45,142,54,100,140,189,54,
  122,61,232,54,212,86,2,55,201,126,197,54,104,97,205,54,19,248,101,54,
  242,14,34,55,239,191,154,54,189,230,195,54,128,71,241,54,132,108,205,54,
  147,122,201,54,25,130,185,54,54,238,176,54,151,189,167,54,170,144,247,54,
  74,91,8,55,191,96,182,54,210,184,205,54,165,65,98,54,227,77,211,54,
  87,182,145,54,95,196,136,54,124,210,197,54,190,43,176,54,172,250,172,54,
  87,133,155,54,141,245,175,54,98,233,106,54,56,0,0,0,109,111,100,101,
  108,95,102,117,108,108,47,115,101,112,97,114,97,98,108,101,95,99,111,110,
  118,50,100,95,49,47,115,101,112,97,114,97,98,108,101,95,99,111,110,118,
  50,100,47,100,101,112,116,104,119,105,115,101,0,0,0,0,1,0,0,0,
  32,0,0,0,66,233,255,255,0,0,0,1,20,0,0,0,36,3,0,0,
  12,0,0,0,0,0,0,9,76,3,0,0,140,232,255,255,8,0,0,0,
  8,2,0,0,64,0,0,0,0,0,0,0,0,0,0,0,0,0,0,0,
  0,0,0,0,0,0,0,0,0,0,0,0,0,0,0,0,0,0,0,0,
  0,0,0,0,0,0,0,0,0,0,0,0,0,0,0,0,0,0,0,0,
  0,0,0,0,0,0,0,0,0,0,0,0,0,0,0,0,0,0,0,0,
  0,0,0,0,0,0,0,0,0,0,0,0,0,0,0,0,0,0,0,0,
  0,0,0,0,0,0,0,0,0,0,0,0,0,0,0,0,0,0,0,0,
  0,0,0,0,0,0,0,0,0,0,0,0,0,0,0,0,0,0,0,0,
  0,0,0,0,0,0,0,0,0,0,0,0,0,0,0,0,0,0,0,0,
  0,0,0,0,0,0,0,0,0,0,0,0,0,0,0,0,0,0,0,0,
  0,0,0,0,0,0,0,0,0,0,0,0,0,0,0,0,0,0,0,0,
  0,0,0,0,0,0,0,0,0,0,0,0,0,0,0,0,0,0,0,0,
  0,0,0,0,0,0,0,0,0,0,0,0,0,0,0,0,0,0,0,0,
  0,0,0,0,0,0,0,0,0,0,0,0,0,0,0,0,0,0,0,0,
  0,0,0,0,0,0,0,0,0,0,0,0,0,0,0,0,0,0,0,0,
  0,0,0,0,0,0,0,0,0,0,0,0,0,0,0,0,0,0,0,0,
  0,0,0,0,0,0,0,0,0,0,0,0,0,0,0,0,0,0,0,0,
  0,0,0,0,0,0,0,0,0,0,0,0,0,0,0,0,0,0,0,0,
  0,0,0,0,0,0,0,0,0,0,0,0,0,0,0,0,0,0,0,0,
  0,0,0,0,0,0,0,0,0,0,0,0,0,0,0,0,0,0,0,0,
  0,0,0,0,0,0,0,0,0,0,0,0,0,0,0,0,0,0,0,0,
  0,0,0,0,0,0,0,0,0,0,0,0,0,0,0,0,0,0,0,0,
  0,0,0,0,0,0,0,0,0,0,0,0,0,0,0,0,0,0,0,0,
  0,0,0,0,0,0,0,0,0,0,0,0,0,0,0,0,0,0,0,0,
  0,0,0,0,0,0,0,0,0,0,0,0,0,0,0,0,0,0,0,0,
  0,0,0,0,0,0,0,0,0,0,0,0,0,0,0,0,0,0,0,0,
  0,0,0,0,0,0,0,0,0,0,0,0,0,0,0,0,0,0,0,0,
  64,0,0,0,162,161,22,59,102,29,0,59,115,175,50,59,189,79,3,59,
  3,153,239,58,130,199,242,58,175,46,36,59,17,105,13,59,25,187,251,58,
  201,138,24,59,179,129,41,59,69,6,251,58,104,202,21,59,71,34,30,59,
  158,26,16,59,184,15,52,59,42,187,38,59,12,150,39,59,136,56,26,59,
  23,210,25,59,84,134,10,59,228,248,8,59,110,0,51,59,82,243,43,59,
  61,225,70,59,117,197,15,59,246,13,75,59,45,18,58,59,120,18,76,59,
  31,169,29,59,30,188,249,58,229,104,65,59,197,236,9,59,28,19,0,59,
  72,214,43,59,23,38,33,59,180,7,17,59,179,202,12,59,221,229,29,59,
  226,69,44,59,128,213,22,59,220,20,41,59,251,36,25,59,155,144,60,59,
  83,170,255,58,135,48,49,59,82,132,245,58,11,198,31,59,118,249,50,59,
  231,95,83,59,107,18,76,59,109,218,240,58,26,231,19,59,16,10,22,59,
  85,167,95,59,48,247,67,59,238,186,58,59,39,250,42,59,132,0,84,59,
  39,33,69,59,231,246,16,59,31,229,39,59,252,176,29,59,174,79,72,59,
  46,0,0,0,109,111,100,101,108,95,102,117,108,108,47,115,101,112,97,114,
  97,98,108,101,95,99,111,110,118,50,100,95,49,47,115,101,112,97,114,97,
  98,108,101,95,99,111,110,118,50,100,0,0,4,0,0,0,64,0,0,0,
  1,0,0,0,1,0,0,0,32,0,0,0,186,236,255,255,0,0,0,1,
  20,0,0,0,40,3,0,0,11,0,0,0,0,0,0,2,88,3,0,0,
  4,236,255,255,8,0,0,0,12,2,0,0,64,0,0,0,0,0,0,0,
  0,0,0,0,0,0,0,0,0,0,0,0,0,0,0,0,0,0,0,0,
  0,0,0,0,0,0,0,0,0,0,0,0,0,0,0,0,0,0,0,0,
  0,0,0,0,0,0,0,0,0,0,0,0,0,0,0,0,0,0,0,0,
  0,0,0,0,0,0,0,0,0,0,0,0,0,0,0,0,0,0,0,0,
  0,0,0,0,0,0,0,0,0,0,0,0,0,0,0,0,0,0,0,0,
  0,0,0,0,0,0,0,0,0,0,0,0,0,0,0,0,0,0,0,0,
  0,0,0,0,0,0,0,0,0,0,0,0,0,0,0,0,0,0,0,0,
  0,0,0,0,0,0,0,0,0,0,0,0,0,0,0,0,0,0,0,0,
  0,0,0,0,0,0,0,0,0,0,0,0,0,0,0,0,0,0,0,0,
  0,0,0,0,0,0,0,0,0,0,0,0,0,0,0,0,0,0,0,0,
  0,0,0,0,0,0,0,0,0,0,0,0,0,0,0,0,0,0,0,0,
  0,0,0,0,0,0,0,0,0,0,0,0,0,0,0,0,0,0,0,0,
  0,0,0,0,0,0,0,0,0,0,0,0,0,0,0,0,0,0,0,0,
  0,0,0,0,0,0,0,0,0,0,0,0,0,0,0,0,0,0,0,0,
  0,0,0,0,0,0,0,0,0,0,0,0,0,0,0,0,0,0,0,0,
  0,0,0,0,0,0,0,0,0,0,0,0,0,0,0,0,0,0,0,0,
  0,0,0,0,0,0,0,0,0,0,0,0,0,0,0,0,0,0,0,0,
  0,0,0,0,0,0,0,0,0,0,0,0,0,0,0,0,0,0,0,0,
  0,0,0,0,0,0,0,0,0,0,0,0,0,0,0,0,0,0,0,0,
  0,0,0,0,0,0,0,0,0,0,0,0,0,0,0,0,0,0,0,0,
  0,0,0,0,0,0,0,0,0,0,0,0,0,0,0,0,0,0,0,0,
  0,0,0,0,0,0,0,0,0,0,0,0,0,0,0,0,0,0,0,0,
  0,0,0,0,0,0,0,0,0,0,0,0,0,0,0,0,0,0,0,0,
  0,0,0,0,0,0,0,0,0,0,0,0,0,0,0,0,0,0,0,0,
  0,0,0,0,0,0,0,0,0,0,0,0,0,0,0,0,0,0,0,0,
  0,0,0,0,0,0,0,0,0,0,0,0,64,0,0,0,122,45,146,55,
  89,167,120,55,242,102,173,55,163,219,126,55,116,131,104,55,222,153,107,55,
  245,83,159,55,180,58,137,55,179,73,116,55,42,8,148,55,172,126,164,55,
  56,154,115,55,157,92,145,55,85,117,153,55,222,215,139,55,205,188,174,55,
  37,205,161,55,143,161,162,55,53,169,149,55,203,69,149,55,207,109,134,55,
  31,236,132,55,136,181,173,55,204,221,166,55,225,255,192,55,58,133,139,55,
  1,13,197,55,197,145,180,55,207,9,198,55,194,255,152,55,212,89,114,55,
  241,176,187,55,202,216,133,55,97,147,120,55,157,193,166,55,83,98,156,55,
  242,189,140,55,5,161,136,55,181,58,153,55,235,45,167,55,207,95,146,55,
  13,21,164,55,205,157,148,55,83,253,182,55,37,27,120,55,89,243,171,55,
  245,65,110,55,176,12,155,55,197,174,173,55,248,31,205,55,195,9,198,55,
  93,187,105,55,153,135,143,55,99,154,145,55,117,10,217,55,227,43,190,55,
  137,53,181,55,255,235,165,55,213,187,205,55,11,77,191,55,164,173,140,55,
  75,238,162,55,100,7,153,55,125,99,194,55,52,0,0,0,109,111,100,101,
  108,95,102,117,108,108,47,115,101,112,97,114,97,98,108,101,95,99,111,110,
  118,50,100,95,49,47,66,105,97,115,65,100,100,47,82,101,97,100,86,97,
  114,105,97,98,108,101,79,112,0,0,0,0,1,0,0,0,64,0,0,0,
  50,240,255,255,0,0,0,1,40,0,0,0,64,3,0,0,10,0,0,0,
  0,0,0,9,116,3,0,0,0,0,18,0,16,0,0,0,0,0,12,0,
  8,0,0,0,0,0,4,0,18,0,0,0,3,0,0,0,8,0,0,0,
  12,2,0,0,64,0,0,0,0,0,0,0,0,0,0,0,0,0,0,0,
  0,0,0,0,0,0,0,0,0,0,0,0,0,0,0,0,0,0,0,0,
  0,0,0,0,0,0,0,0,0,0,0,0,0,0,0,0,0,0,0,0,
  0,0,0,0,0,0,0,0,0,0,0,0,0,0,0,0,0,0,0,0,
  0,0,0,0,0,0,0,0,0,0,0,0,0,0,0,0,0,0,0,0,
  0,0,0,0,0,0,0,0,0,0,0,0,0,0,0,0,0,0,0,0,
  0,0,0,0,0,0,0,0,0,0,0,0,0,0,0,0,0,0,0,0,
  0,0,0,0,0,0,0,0,0,0,0,0,0,0,0,0,0,0,0,0,
  0,0,0,0,0,0,0,0,0,0,0,0,0,0,0,0,0,0,0,0,
  0,0,0,0,0,0,0,0,0,0,0,0,0,0,0,0,0,0,0,0,
  0,0,0,0,0,0,0,0,0,0,0,0,0,0,0,0,0,0,0,0,
  0,0,0,0,0,0,0,0,0,0,0,0,0,0,0,0,0,0,0,0,
  0,0,0,0,0,0,0,0,0,0,0,0,0,0,0,0,0,0,0,0,
  0,0,0,0,0,0,0,0,0,0,0,0,0,0,0,0,0,0,0,0,
  0,0,0,0,0,0,0,0,0,0,0,0,0,0,0,0,0,0,0,0,
  0,0,0,0,0,0,0,0,0,0,0,0,0,0,0,0,0,0,0,0,
  0,0,0,0,0,0,0,0,0,0,0,0,0,0,0,0,0,0,0,0,
  0,0,0,0,0,0,0,0,0,0,0,0,0,0,0,0,0,0,0,0,
  0,0,0,0,0,0,0,0,0,0,0,0,0,0,0,0,0,0,0,0,
  0,0,0,0,0,0,0,0,0,0,0,0,0,0,0,0,0,0,0,0,
  0,0,0,0,0,0,0,0,0,0,0,0,0,0,0,0,0,0,0,0,
  0,0,0,0,0,0,0,0,0,0,0,0,0,0,0,0,0,0,0,0,
  0,0,0,0,0,0,0,0,0,0,0,0,0,0,0,0,0,0,0,0,
  0,0,0,0,0,0,0,0,0,0,0,0,0,0,0,0,0,0,0,0,
  0,0,0,0,0,0,0,0,0,0,0,0,0,0,0,0,0,0,0,0,
  0,0,0,0,0,0,0,0,0,0,0,0,0,0,0,0,0,0,0,0,
  0,0,0,0,64,0,0,0,254,76,179,58,227,3,134,58,58,44,249,58,
  237,99,111,58,218,167,97,58,94,8,73,58,10,160,162,58,222,43,133,58,
  66,89,137,58,229,62,193,58,132,87,181,58,218,127,28,58,49,47,64,58,
  247,211,157,58,142,109,150,58,144,35,188,58,174,82,226,58,56,216,198,58,
  39,133,166,58,250,48,169,58,209,152,27,58,5,47,80,58,187,248,153,58,
  224,121,143,58,200,3,154,58,180,139,186,58,162,39,22,59,149,105,63,59,
  198,46,25,59,21,148,131,58,112,153,95,58,234,129,200,58,118,179,134,58,
  194,234,49,58,84,18,177,58,118,29,128,58,138,194,68,58,27,121,131,58,
  117,147,152,58,68,51,167,58,95,160,89,58,98,24,198,58,153,101,176,58,
  249,255,151,58,199,198,81,58,150,66,200,58,231,67,57,58,249,156,191,58,
  11,89,20,59,31,16,71,59,163,111,224,58,153,211,75,58,58,41,218,58,
  84,54,110,58,179,65,4,59,160,130,242,58,231,194,174,58,211,95,213,58,
  253,161,14,59,167,104,80,59,5,25,139,58,79,197,237,58,33,75,181,58,
  90,233,52,59,56,0,0,0,109,111,100,101,108,95,102,117,108,108,47,115,
  101,112,97,114,97,98,108,101,95,99,111,110,118,50,100,95,50,47,115,101,
  112,97,114,97,98,108,101,95,99,111,110,118,50,100,47,100,101,112,116,104,
  119,105,115,101,0,0,0,0,4,0,0,0,1,0,0,0,3,0,0,0,
  3,0,0,0,64,0,0,0,210,243,255,255,0,0,0,1,20,0,0,0,
  40,3,0,0,9,0,0,0,0,0,0,2,80,3,0,0,28,243,255,255,
  8,0,0,0,12,2,0,0,64,0,0,0,0,0,0,0,0,0,0,0,
  0,0,0,0,0,0,0,0,0,0,0,0,0,0,0,0,0,0,0,0,
  0,0,0,0,0,0,0,0,0,0,0,0,0,0,0,0,0,0,0,0,
  0,0,0,0,0,0,0,0,0,0,0,0,0,0,0,0,0,0,0,0,
  0,0,0,0,0,0,0,0,0,0,0,0,0,0,0,0,0,0,0,0,
  0,0,0,0,0,0,0,0,0,0,0,0,0,0,0,0,0,0,0,0,
  0,0,0,0,0,0,0,0,0,0,0,0,0,0,0,0,0,0,0,0,
  0,0,0,0,0,0,0,0,0,0,0,0,0,0,0,0,0,0,0,0,
  0,0,0,0,0,0,0,0,0,0,0,0,0,0,0,0,0,0,0,0,
  0,0,0,0,0,0,0,0,0,0,0,0,0,0,0,0,0,0,0,0,
  0,0,0,0,0,0,0,0,0,0,0,0,0,0,0,0,0,0,0,0,
  0,0,0,0,0,0,0,0,0,0,0,0,0,0,0,0,0,0,0,0,
  0,0,0,0,0,0,0,0,0,0,0,0,0,0,0,0,0,0,0,0,
  0,0,0,0,0,0,0,0,0,0,0,0,0,0,0,0,0,0,0,0,
  0,0,0,0,0,0,0,0,0,0,0,0,0,0,0,0,0,0,0,0,
  0,0,0,0,0,0,0,0,0,0,0,0,0,0,0,0,0,0,0,0,
  0,0,0,0,0,0,0,0,0,0,0,0,0,0,0,0,0,0,0,0,
  0,0,0,0,0,0,0,0,0,0,0,0,0,0,0,0,0,0,0,0,
  0,0,0,0,0,0,0,0,0,0,0,0,0,0,0,0,0,0,0,0,
  0,0,0,0,0,0,0,0,0,0,0,0,0,0,0,0,0,0,0,0,
  0,0,0,0,0,0,0,0,0,0,0,0,0,0,0,0,0,0,0,0,
  0,0,0,0,0,0,0,0,0,0,0,0,0,0,0,0,0,0,0,0,
  0,0,0,0,0,0,0,0,0,0,0,0,0,0,0,0,0,0,0,0,
  0,0,0,0,0,0,0,0,0,0,0,0,0,0,0,0,0,0,0,0,
  0,0,0,0,0,0,0,0,0,0,0,0,0,0,0,0,0,0,0,0,
  0,0,0,0,0,0,0,0,0,0,0,0,0,0,0,0,0,0,0,0,
  0,0,0,0,0,0,0,0,64,0,0,0,57,40,136,54,86,137,75,54,
  102,55,189,54,176,201,53,54,168,91,43,54,237,168,24,54,241,252,118,54,
  65,65,74,54,102,153,80,54,33,191,146,54,4,181,137,54,63,175,237,53,
  205,240,17,54,203,179,111,54,165,118,100,54,94,222,142,54,97,221,171,54,
  144,255,150,54,80,231,124,54,240,122,128,54,92,80,236,53,22,23,30,54,
  109,216,105,54,191,231,89,54,53,233,105,54,166,168,141,54,116,12,228,54,
  190,90,17,55,180,165,232,54,237,213,71,54,233,203,41,54,212,66,152,54,
  253,147,76,54,57,27,7,54,223,118,134,54,93,147,66,54,76,106,21,54,
  245,172,71,54,208,185,103,54,192,239,125,54,197,66,37,54,227,109,150,54,
  180,243,133,54,210,217,102,54,186,76,31,54,189,18,152,54,185,175,12,54,
  196,129,145,54,228,77,225,54,4,42,23,55,145,110,170,54,15,200,26,54,
  178,170,165,54,169,228,52,54,156,221,200,54,52,40,184,54,193,181,132,54,
  39,8,162,54,222,159,216,54,218,66,30,55,112,65,83,54,214,142,180,54,
  156,171,137,54,92,97,9,55,46,0,0,0,109,111,100,101,108,95,102,117,
  108,108,47,115,101,112,97,114,97,98,108,101,95,99,111,110,118,50,100,95,
  50,47,115,101,112,97,114,97,98,108,101,95,99,111,110,118,50,100,0,0,
  1,0,0,0,64,0,0,0,66,247,255,255,0,0,0,1,20,0,0,0,
  36,3,0,0,8,0,0,0,0,0,0,9,76,3,0,0,140,246,255,255,
  8,0,0,0,8,2,0,0,64,0,0,0,0,0,0,0,0,0,0,0,
  0,0,0,0,0,0,0,0,0,0,0,0,0,0,0,0,0,0,0,0,
  0,0,0,0,0,0,0,0,0,0,0,0,0,0,0,0,0,0,0,0,
  0,0,0,0,0,0,0,0,0,0,0,0,0,0,0,0,0,0,0,0,
  0,0,0,0,0,0,0,0,0,0,0,0,0,0,0,0,0,0,0,0,
  0,0,0,0,0,0,0,0,0,0,0,0,0,0,0,0,0,0,0,0,
  0,0,0,0,0,0,0,0,0,0,0,0,0,0,0,0,0,0,0,0,
  0,0,0,0,0,0,0,0,0,0,0,0,0,0,0,0,0,0,0,0,
  0,0,0,0,0,0,0,0,0,0,0,0,0,0,0,0,0,0,0,0,
  0,0,0,0,0,0,0,0,0,0,0,0,0,0,0,0,0,0,0,0,
  0,0,0,0,0,0,0,0,0,0,0,0,0,0,0,0,0,0,0,0,
  0,0,0,0,0,0,0,0,0,0,0,0,0,0,0,0,0,0,0,0,
  0,0,0,0,0,0,0,0,0,0,0,0,0,0,0,0,0,0,0,0,
  0,0,0,0,0,0,0,0,0,0,0,0,0,0,0,0,0,0,0,0,
  0,0,0,0,0,0,0,0,0,0,0,0,0,0,0,0,0,0,0,0,
  0,0,0,0,0,0,0,0,0,0,0,0,0,0,0,0,0,0,0,0,
  0,0,0,0,0,0,0,0,0,0,0,0,0,0,0,0,0,0,0,0,
  0,0,0,0,0,0,0,0,0,0,0,0,0,0,0,0,0,0,0,0,
  0,0,0,0,0,0,0,0,0,0,0,0,0,0,0,0,0,0,0,0,
  0,0,0,0,0,0,0,0,0,0,0,0,0,0,0,0,0,0,0,0,
  0,0,0,0,0,0,0,0,0,0,0,0,0,0,0,0,0,0,0,0,
  0,0,0,0,0,0,0,0,0,0,0,0,0,0,0,0,0,0,0,0,
  0,0,0,0,0,0,0,0,0,0,0,0,0,0,0,0,0,0,0,0,
  0,0,0,0,0,0,0,0,0,0,0,0,0,0,0,0,0,0,0,0,
  0,0,0,0,0,0,0,0,0,0,0,0,0,0,0,0,0,0,0,0,
  0,0,0,0,0,0,0,0,0,0,0,0,0,0,0,0,0,0,0,0,
  0,0,0,0,64,0,0,0,223,9,224,58,221,197,22,59,126,156,18,59,
  234,145,42,59,17,227,232,58,42,202,221,58,133,132,234,58,214,167,227,58,
  92,89,100,59,222,88,234,58,94,70,39,59,77,150,217,58,126,216,7,59,
  128,209,214,58,86,248,33,59,42,18,23,59,75,192,244,58,164,138,18,59,
  169,45,217,58,121,182,247,58,153,217,3,59,195,78,213,58,58,29,50,59,
  170,32,46,59,250,9,33,59,234,178,221,58,61,180,222,58,32,94,214,58,
  174,107,225,58,112,169,222,58,66,46,220,58,219,178,236,58,109,168,223,58,
  136,154,251,58,56,35,17,59,58,113,9,59,75,215,254,58,21,10,13,59,
  180,33,90,59,25,7,220,58,211,71,223,58,60,25,1,59,246,97,15,59,
  153,105,0,59,238,191,2,59,59,203,11,59,204,33,2,59,0,223,225,58,
  213,1,15,59,37,106,5,59,75,253,235,58,54,98,5,59,24,170,23,59,
  19,103,3,59,114,248,53,59,244,20,253,58,82,183,62,59,184,4,12,59,
  121,43,75,59,42,192,6,59,218,210,238,58,242,73,58,59,240,251,26,59,
  21,23,238,58,47,0,0,0,109,111,100,101,108,95,102,117,108,108,47,115,
  101,112,97,114,97,98,108,101,95,99,111,110,118,50,100,95,50,47,115,101,
  112,97,114,97,98,108,101,95,99,111,110,118,50,100,49,0,4,0,0,0,
  64,0,0,0,1,0,0,0,1,0,0,0,64,0,0,0,186,250,255,255,
  0,0,0,1,20,0,0,0,40,3,0,0,7,0,0,0,0,0,0,2,
  88,3,0,0,4,250,255,255,8,0,0,0,12,2,0,0,64,0,0,0,
  0,0,0,0,0,0,0,0,0,0,0,0,0,0,0,0,0,0,0,0,
  0,0,0,0,0,0,0,0,0,0,0,0,0,0,0,0,0,0,0,0,
  0,0,0,0,0,0,0,0,0,0,0,0,0,0,0,0,0,0,0,0,
  0,0,0,0,0,0,0,0,0,0,0,0,0,0,0,0,0,0,0,0,
  0,0,0,0,0,0,0,0,0,0,0,0,0,0,0,0,0,0,0,0,
  0,0,0,0,0,0,0,0,0,0,0,0,0,0,0,0,0,0,0,0,
  0,0,0,0,0,0,0,0,0,0,0,0,0,0,0,0,0,0,0,0,
  0,0,0,0,0,0,0,0,0,0,0,0,0,0,0,0,0,0,0,0,
  0,0,0,0,0,0,0,0,0,0,0,0,0,0,0,0,0,0,0,0,
  0,0,0,0,0,0,0,0,0,0,0,0,0,0,0,0,0,0,0,0,
  0,0,0,0,0,0,0,0,0,0,0,0,0,0,0,0,0,0,0,0,
  0,0,0,0,0,0,0,0,0,0,0,0,0,0,0,0,0,0,0,0,
  0,0,0,0,0,0,0,0,0,0,0,0,0,0,0,0,0,0,0,0,
  0,0,0,0,0,0,0,0,0,0,0,0,0,0,0,0,0,0,0,0,
  0,0,0,0,0,0,0,0,0,0,0,0,0,0,0,0,0,0,0,0,
  0,0,0,0,0,0,0,0,0,0,0,0,0,0,0,0,0,0,0,0,
  0,0,0,0,0,0,0,0,0,0,0,0,0,0,0,0,0,0,0,0,
  0,0,0,0,0,0,0,0,0,0,0,0,0,0,0,0,0,0,0,0,
  0,0,0,0,0,0,0,0,0,0,0,0,0,0,0,0,0,0,0,0,
  0,0,0,0,0,0,0,0,0,0,0,0,0,0,0,0,0,0,0,0,
  0,0,0,0,0,0,0,0,0,0,0,0,0,0,0,0,0,0,0,0,
  0,0,0,0,0,0,0,0,0,0,0,0,0,0,0,0,0,0,0,0,
  0,0,0,0,0,0,0,0,0,0,0,0,0,0,0,0,0,0,0,0,
  0,0,0,0,0,0,0,0,0,0,0,0,0,0,0,0,0,0,0,0,
  0,0,0,0,0,0,0,0,0,0,0,0,0,0,0,0,0,0,0,0,
  0,0,0,0,0,0,0,0,0,0,0,0,0,0,0,0,64,0,0,0,
  37,246,4,55,208,245,50,55,68,5,46,55,88,117,74,55,124,54,10,55,
  122,160,3,55,60,46,11,55,175,27,7,55,10,133,135,55,84,20,11,55,
  24,140,70,55,251,33,1,55,7,62,33,55,165,250,254,54,45,64,64,55,
  96,80,51,55,2,65,17,55,20,240,45,55,224,227,0,55,248,2,19,55,
  230,127,28,55,155,47,253,54,184,105,83,55,92,174,78,55,65,37,63,55,
  174,146,3,55,101,43,4,55,179,113,254,54,31,200,5,55,252,36,4,55,
  5,172,2,55,152,121,12,55,80,188,4,55,27,82,21,55,118,69,44,55,
  45,35,35,55,244,61,23,55,48,104,39,55,182,116,129,55,200,148,2,55,
  252,130,4,55,219,59,25,55,55,48,42,55,98,107,24,55,147,49,27,55,
  185,237,37,55,225,117,26,55,144,12,6,55,29,190,41,55,84,91,30,55,
  215,13,12,55,234,81,30,55,182,4,52,55,247,247,27,55,128,253,87,55,
  176,50,22,55,240,94,98,55,246,49,38,55,31,39,113,55,74,241,31,55,
  113,188,13,55,173,29,93,55,111,245,55,55,1,77,13,55,52,0,0,0,
  109,111,100,101,108,95,102,117,108,108,47,115,101,112,97,114,97,98,108,101,
  95,99,111,110,118,50,100,95,50,47,66,105,97,115,65,100,100,47,82,101,
  97,100,86,97,114,105,97,98,108,101,79,112,0,0,0,0,1,0,0,0,
  64,0,0,0,50,254,255,255,0,0,0,1,20,0,0,0,48,0,0,0,
  6,0,0,0,0,0,0,9,68,0,0,0,124,253,255,255,8,0,0,0,
  16,0,0,0,1,0,0,0,0,0,0,0,0,0,0,0,1,0,0,0,
  169,253,74,59,25,0,0,0,109,111,100,101,108,95,102,117,108,108,47,100,
  101,110,115,101,95,49,47,77,97,116,77,117,108,0,0,0,2,0,0,0,
  64,0,0,0,64,0,0,0,154,254,255,255,0,0,0,1,20,0,0,0,
  52,0,0,0,5,0,0,0,0,0,0,2,88,0,0,0,228,253,255,255,
  8,0,0,0,20,0,0,0,1,0,0,0,0,0,0,0,0,0,0,0,
  0,0,0,0,1,0,0,0,71,234,217,54,41,0,0,0,109,111,100,101,
  108,95,102,117,108,108,47,100,101,110,115,101,95,49,47,66,105,97,115,65,
  100,100,47,82,101,97,100,86,97,114,105,97,98,108,101,79,112,0,0,0,
  1,0,0,0,64,0,0,0,18,255,255,255,0,0,0,1,20,0,0,0,
  52,0,0,0,4,0,0,0,0,0,0,9,76,0,0,0,92,254,255,255,
  8,0,0,0,20,0,0,0,1,0,0,0,0,0,0,0,0,0,0,0,
  0,0,0,0,1,0,0,0,145,123,99,59,29,0,0,0,109,111,100,101,
  108,95,102,117,108,108,47,102,117,108,108,95,111,117,116,112,117,116,47,77,
  97,116,77,117,108,0,0,0,2,0,0,0,2,0,0,0,64,0,0,0,
  130,255,255,255,0,0,0,1,20,0,0,0,52,0,0,0,3,0,0,0,
  0,0,0,2,92,0,0,0,204,254,255,255,8,0,0,0,20,0,0,0,
  1,0,0,0,0,0,0,0,0,0,0,0,0,0,0,0,1,0,0,0,
  171,31,106,55,45,0,0,0,109,111,100,101,108,95,102,117,108,108,47,102,
  117,108,108,95,111,117,116,112,117,116,47,66,105,97,115,65,100,100,47,82,
  101,97,100,86,97,114,105,97,98,108,101,79,112,0,0,0,1,0,0,0,
  2,0,0,0,0,0,22,0,28,0,24,0,23,0,16,0,12,0,8,0,
  0,0,0,0,0,0,7,0,22,0,0,0,0,0,0,1,24,0,0,0,
  24,0,0,0,2,0,0,0,0,0,0,2,80,0,0,0,4,0,4,0,
  4,0,0,0,60,0,0,0,109,111,100,101,108,95,102,117,108,108,47,103,
  108,111,98,97,108,95,97,118,101,114,97,103,101,95,112,111,111,108,105,110,
  103,50,100,95,49,47,77,101,97,110,47,114,101,100,117,99,116,105,111,110,
  95,105,110,100,105,99,101,115,0,0,0,0,1,0,0,0,2,0,0,0,
  0,0,22,0,32,0,28,0,27,0,20,0,16,0,12,0,0,0,0,0,
  8,0,7,0,22,0,0,0,0,0,0,1,24,0,0,0,52,0,0,0,
  84,0,0,0,1,0,0,0,0,0,0,9,104,0,0,0,4,0,0,0,
  255,255,255,255,64,0,0,0,64,0,0,0,1,0,0,0,12,0,12,0,
  0,0,0,0,8,0,4,0,12,0,0,0,8,0,0,0,20,0,0,0,
  1,0,0,0,128,255,255,255,255,255,255,255,0,0,0,0,1,0,0,0,
  129,128,128,59,25,0,0,0,115,101,114,118,105,110,103,95,100,101,102,97,
  117,108,116,95,105,110,112,117,116,95,49,58,48,0,0,0,4,0,0,0,
  1,0,0,0,64,0,0,0,64,0,0,0,1,0,0,0,6,0,0,0,
  116,0,0,0,84,0,0,0,64,0,0,0,44,0,0,0,24,0,0,0,
  4,0,0,0,176,255,255,255,25,0,0,0,2,0,0,0,0,0,0,25,
  192,255,255,255,9,0,0,0,4,0,0,0,0,0,0,9,208,255,255,255,
  40,0,0,0,2,0,0,0,0,0,0,40,224,255,255,255,4,0,0,0,
  3,0,0,0,0,0,0,4,240,255,255,255,17,0,0,0,2,0,0,0,
  0,0,0,17,12,0,16,0,15,0,0,0,8,0,4,0,12,0,0,0,
  3,0,0,0,3,0,0,0,0,0,0,3
};
const int g_model_full_int8_len = 27832;
