// Auto-generated from C:\1_A-Z Classwork\SEM3\EDI\tinyml_esp\tinyml-esp32-project\models_export\model_exit1_int8.tflite
#include <cstdint>

const unsigned char g_model_exit1_int8[] = {
  28,0,0,0,84,70,76,51,20,0,32,0,28,0,24,0,20,0,16,0,
  12,0,0,0,8,0,4,0,20,0,0,0,28,0,0,0,148,0,0,0,
  236,0,0,0,108,11,0,0,124,11,0,0,196,32,0,0,3,0,0,0,
  1,0,0,0,16,0,0,0,0,0,10,0,16,0,12,0,8,0,4,0,
  10,0,0,0,12,0,0,0,28,0,0,0,64,0,0,0,15,0,0,0,
  115,101,114,118,105,110,103,95,100,101,102,97,117,108,116,0,1,0,0,0,
  4,0,0,0,148,255,255,255,20,0,0,0,4,0,0,0,12,0,0,0,
  101,120,105,116,49,95,111,117,116,112,117,116,0,0,0,0,1,0,0,0,
  4,0,0,0,122,244,255,255,4,0,0,0,7,0,0,0,105,110,112,117,
  116,95,49,0,2,0,0,0,52,0,0,0,4,0,0,0,220,255,255,255,
  23,0,0,0,4,0,0,0,19,0,0,0,67,79,78,86,69,82,83,73,
  79,78,95,77,69,84,65,68,65,84,65,0,8,0,12,0,8,0,4,0,
  8,0,0,0,22,0,0,0,4,0,0,0,19,0,0,0,109,105,110,95,
  114,117,110,116,105,109,101,95,118,101,114,115,105,111,110,0,24,0,0,0,
  124,10,0,0,116,10,0,0,92,10,0,0,68,10,0,0,244,9,0,0,
  100,9,0,0,84,5,0,0,196,4,0,0,180,2,0,0,100,2,0,0,
  196,1,0,0,116,1,0,0,212,0,0,0,204,0,0,0,196,0,0,0,
  188,0,0,0,180,0,0,0,172,0,0,0,164,0,0,0,156,0,0,0,
  148,0,0,0,140,0,0,0,108,0,0,0,4,0,0,0,78,245,255,255,
  4,0,0,0,88,0,0,0,12,0,0,0,8,0,14,0,8,0,4,0,
  8,0,0,0,16,0,0,0,40,0,0,0,0,0,6,0,8,0,4,0,
  6,0,0,0,4,0,0,0,1,0,0,0,235,3,0,0,0,0,10,0,
  16,0,12,0,8,0,4,0,10,0,0,0,2,0,0,0,2,0,0,0,
  4,0,0,0,6,0,0,0,50,46,49,48,46,48,0,0,178,245,255,255,
  4,0,0,0,16,0,0,0,49,46,49,52,46,48,0,0,0,0,0,0,
  0,0,0,0,0,226,255,255,4,226,255,255,8,226,255,255,12,226,255,255,
  16,226,255,255,20,226,255,255,24,226,255,255,28,226,255,255,32,226,255,255,
  242,245,255,255,4,0,0,0,144,0,0,0,122,0,92,0,217,143,190,127,
  87,210,201,75,0,97,165,0,82,129,35,118,112,25,42,71,91,127,204,58,
  232,107,127,104,223,212,107,106,81,208,0,221,159,42,47,64,129,232,84,35,
  0,127,28,100,117,0,127,0,66,219,185,100,41,0,90,228,44,37,0,46,
  129,147,0,0,106,33,92,62,163,198,232,129,157,127,0,207,219,183,221,117,
  131,81,40,34,221,233,127,153,0,28,158,205,0,195,127,203,40,42,59,93,
  204,0,181,0,185,154,79,148,129,162,104,145,0,37,127,0,55,89,215,228,
  129,38,35,227,38,106,221,0,129,163,148,229,136,205,220,131,142,246,255,255,
  4,0,0,0,64,0,0,0,69,175,255,255,241,78,0,0,42,174,255,255,
  196,202,255,255,246,112,0,0,64,211,255,255,235,172,255,255,66,63,0,0,
  209,20,0,0,36,247,255,255,212,254,255,255,1,139,255,255,71,25,0,0,
  69,159,255,255,102,14,0,0,10,78,0,0,218,246,255,255,4,0,0,0,
  144,0,0,0,233,98,193,200,187,94,129,13,115,185,179,240,106,208,39,50,
  175,240,246,222,131,127,61,180,80,152,144,155,82,225,238,105,15,89,164,228,
  133,50,192,129,81,188,243,191,73,35,11,84,100,127,251,206,129,91,166,189,
  102,194,210,195,48,240,252,103,95,11,238,138,10,230,184,139,49,129,129,129,
  183,78,132,127,34,83,138,129,226,15,191,254,60,167,236,140,12,127,129,34,
  190,250,129,8,136,74,44,152,20,250,26,227,127,124,6,36,127,75,237,160,
  195,73,225,164,127,173,171,35,5,108,229,1,25,94,21,253,232,70,196,154,
  125,190,179,198,185,216,169,17,118,247,255,255,4,0,0,0,64,0,0,0,
  0,0,0,0,0,0,0,0,0,0,0,0,0,0,0,0,0,0,0,0,
  0,0,0,0,0,0,0,0,0,0,0,0,0,0,0,0,0,0,0,0,
  0,0,0,0,0,0,0,0,0,0,0,0,0,0,0,0,0,0,0,0,
  0,0,0,0,194,247,255,255,4,0,0,0,0,2,0,0,129,67,0,48,
  132,169,22,204,206,162,40,147,201,53,197,182,96,0,76,173,41,149,29,131,
  212,127,112,163,174,242,0,141,72,239,0,25,234,42,196,196,0,129,194,217,
  172,226,215,236,225,66,97,127,0,61,201,98,77,0,216,35,80,40,226,123,
  51,194,232,204,26,62,144,0,73,0,58,129,0,75,20,188,0,183,19,122,
  62,215,62,131,0,64,170,0,0,99,70,127,67,211,0,217,183,102,220,31,
  174,127,107,43,0,218,199,225,165,226,67,0,140,214,0,0,173,197,35,39,
  160,172,127,197,37,209,54,48,238,0,222,0,223,104,127,88,89,184,205,44,
  89,94,30,233,202,211,100,79,236,219,83,28,201,0,127,159,238,172,0,192,
  146,127,0,62,107,135,107,0,183,185,0,108,129,203,192,67,169,0,226,150,
  109,97,99,0,0,145,164,142,0,23,60,226,33,0,62,129,177,125,227,91,
  169,30,18,0,33,226,114,91,129,20,233,162,74,239,98,104,63,189,174,72,
  44,222,29,39,219,51,43,38,0,70,54,225,63,53,207,127,49,193,148,226,
  28,60,56,42,129,33,108,167,42,74,242,223,110,0,152,68,107,115,164,43,
  103,101,64,168,130,129,142,47,218,24,209,17,229,96,225,51,39,125,23,0,
  25,189,215,127,172,86,70,0,129,24,41,210,0,239,74,0,0,176,203,218,
  90,36,0,154,0,34,151,195,248,0,0,194,45,127,135,0,189,177,159,119,
  133,189,64,181,85,0,111,92,129,82,83,55,40,219,207,212,86,127,199,46,
  198,0,105,132,138,121,141,183,220,224,221,96,0,52,33,127,139,32,183,225,
  0,138,178,62,233,179,174,158,67,74,145,99,181,127,79,42,0,192,70,0,
  181,117,82,96,129,52,73,131,187,0,42,20,184,188,97,0,172,72,234,236,
  160,0,27,169,220,81,188,183,230,111,57,127,129,0,20,47,148,0,213,76,
  65,206,173,233,177,178,119,35,0,127,80,184,218,187,156,67,0,0,0,145,
  216,69,213,91,50,61,30,209,97,105,129,0,93,100,80,203,90,0,223,0,
  85,195,212,0,229,51,16,194,127,177,224,203,94,0,0,32,60,170,158,189,
  179,171,0,84,127,42,210,93,0,108,40,159,187,36,205,29,54,129,163,188,
  0,228,88,22,105,228,0,76,206,249,255,255,4,0,0,0,128,0,0,0,
  98,12,0,0,169,21,0,0,50,252,255,255,197,5,0,0,73,245,255,255,
  238,21,0,0,103,249,255,255,152,11,0,0,177,246,255,255,142,30,0,0,
  134,253,255,255,58,15,0,0,228,23,0,0,128,16,0,0,205,255,255,255,
  224,248,255,255,199,12,0,0,150,248,255,255,18,23,0,0,93,254,255,255,
  211,5,0,0,204,247,255,255,9,247,255,255,173,254,255,255,35,8,0,0,
  181,250,255,255,170,0,0,0,129,231,255,255,207,253,255,255,148,241,255,255,
  108,18,0,0,158,242,255,255,90,250,255,255,4,0,0,0,0,4,0,0,
  230,246,18,156,210,193,31,34,25,49,52,192,61,72,159,90,213,241,203,17,
  198,172,85,31,104,219,76,55,83,32,242,174,0,190,221,99,235,178,80,166,
  177,64,82,18,0,225,18,227,53,192,243,71,164,0,173,62,231,64,0,33,
  159,0,178,181,207,0,0,183,0,40,57,167,73,143,219,0,176,74,32,220,
  173,80,194,0,53,0,23,90,189,76,36,51,78,102,242,87,0,85,207,160,
  103,72,229,205,188,169,0,204,186,226,188,26,0,236,159,196,0,77,205,22,
  211,0,51,36,62,66,27,0,35,145,230,209,25,242,96,20,179,67,228,87,
  64,0,241,81,38,20,25,210,0,34,28,0,217,216,56,79,29,214,49,176,
  73,82,231,222,186,182,218,25,201,170,72,209,84,35,0,84,33,13,78,164,
  234,186,231,49,162,163,231,74,70,207,169,0,93,57,92,154,55,186,65,69,
  233,44,0,196,0,231,174,40,232,0,82,0,60,0,20,193,52,190,222,236,
  38,173,87,48,209,0,62,161,168,46,28,0,50,27,21,33,0,212,191,209,
  73,200,69,53,0,52,33,176,101,65,213,61,169,0,195,177,0,149,29,70,
  164,58,177,40,0,87,78,150,74,0,95,158,226,93,0,32,27,160,89,51,
  218,40,191,166,195,200,193,0,194,21,21,168,197,70,79,70,227,0,21,33,
  83,238,205,239,172,221,241,166,17,192,35,0,209,171,159,94,89,0,0,230,
  203,176,196,164,166,67,87,40,190,197,206,16,209,0,167,36,0,50,236,65,
  0,208,54,60,35,180,0,49,227,186,190,32,229,223,24,177,185,202,0,182,
  218,61,45,0,30,0,29,63,57,52,64,60,54,29,212,234,176,89,0,68,
  206,192,171,46,108,61,19,240,217,98,0,103,0,41,209,0,15,127,0,0,
  47,61,33,182,122,200,58,0,205,191,32,216,224,66,50,164,152,181,162,77,
  46,0,164,224,17,73,92,44,214,206,81,238,236,228,0,19,59,209,161,57,
  41,191,61,179,73,163,54,35,227,27,55,0,54,13,0,0,237,0,60,241,
  223,56,186,74,49,0,200,221,71,95,0,97,96,100,16,168,187,50,211,0,
  138,232,215,210,215,90,41,224,44,60,18,30,39,154,233,78,239,66,0,204,
  229,243,74,69,0,20,61,188,53,235,21,196,74,221,215,19,28,225,167,123,
  179,242,33,0,61,0,0,0,0,83,242,50,180,0,239,237,0,72,96,71,
  80,50,25,197,192,19,158,0,0,26,185,190,47,61,75,70,0,162,85,45,
  237,0,0,0,26,160,0,76,28,83,28,0,75,0,0,0,212,91,39,83,
  201,193,83,17,92,69,74,174,0,56,21,0,191,196,0,209,166,64,189,175,
  209,72,228,168,51,208,160,233,61,204,122,185,186,91,225,198,56,220,0,101,
  94,22,200,182,192,25,92,45,238,202,176,182,86,92,50,193,192,79,0,234,
  38,190,230,210,200,48,0,18,223,83,0,241,208,203,71,0,54,237,16,182,
  37,13,59,218,0,0,226,56,211,241,177,226,216,182,54,191,43,86,238,208,
  86,217,84,68,196,0,87,49,40,169,72,160,166,175,178,24,199,13,234,19,
  190,48,18,87,171,177,81,227,38,44,51,0,0,181,0,64,0,190,87,203,
  17,30,203,66,33,26,165,186,199,47,36,225,48,25,101,184,168,201,101,0,
  76,151,201,240,223,171,213,0,157,162,181,84,0,92,0,0,49,0,41,224,
  85,60,34,198,0,52,16,170,90,89,222,31,24,218,232,31,40,213,240,56,
  24,108,0,204,0,0,38,0,196,57,73,0,92,63,59,163,200,0,195,182,
  45,34,177,49,26,146,90,167,207,50,206,196,218,47,229,23,216,0,202,83,
  208,0,188,229,78,165,72,223,80,36,218,232,242,18,26,58,37,220,16,208,
  196,87,0,0,233,34,19,191,187,189,209,181,227,33,15,80,219,65,222,221,
  216,180,45,32,82,226,48,0,225,39,78,238,0,176,207,29,179,55,161,199,
  186,37,232,24,226,231,236,209,180,222,228,48,88,44,26,238,60,68,28,163,
  0,32,55,71,76,0,24,173,234,44,154,0,70,75,192,35,237,190,230,16,
  0,235,19,177,0,88,0,54,0,0,195,90,177,232,219,154,0,17,0,100,
  222,181,100,71,70,68,74,226,0,211,82,76,137,94,16,49,225,180,0,209,
  49,23,22,216,31,0,184,170,216,19,26,65,63,41,0,83,85,76,211,0,
  215,162,205,195,139,164,13,48,85,203,41,90,145,59,41,0,50,97,41,156,
  56,215,190,36,52,226,0,0,0,69,67,178,204,80,47,49,209,71,0,202,
  0,195,24,91,102,254,255,255,4,0,0,0,128,0,0,0,77,255,255,255,
  170,9,0,0,139,233,255,255,240,0,0,0,53,0,0,0,0,0,0,0,
  172,255,255,255,27,4,0,0,195,245,255,255,73,253,255,255,30,246,255,255,
  56,0,0,0,39,17,0,0,132,4,0,0,80,255,255,255,240,6,0,0,
  1,253,255,255,72,0,0,0,0,0,0,0,77,30,0,0,58,249,255,255,
  0,0,0,0,31,14,0,0,144,241,255,255,85,5,0,0,58,245,255,255,
  251,253,255,255,0,0,0,0,196,246,255,255,163,7,0,0,235,8,0,0,
  199,5,0,0,242,254,255,255,4,0,0,0,64,0,0,0,79,168,88,69,
  225,66,79,0,169,213,0,165,197,218,76,28,0,166,83,55,43,53,222,47,
  127,77,0,214,55,134,152,221,0,83,39,217,69,204,156,182,88,216,0,213,
  137,0,212,62,0,0,32,140,84,222,60,156,194,66,58,190,48,74,185,52,
  62,255,255,255,4,0,0,0,8,0,0,0,203,255,255,255,53,0,0,0,
  82,255,255,255,4,0,0,0,8,0,0,0,1,0,0,0,2,0,0,0,
  152,235,255,255,156,235,255,255,15,0,0,0,77,76,73,82,32,67,111,110,
  118,101,114,116,101,100,46,0,1,0,0,0,20,0,0,0,0,0,14,0,
  24,0,20,0,16,0,12,0,8,0,4,0,14,0,0,0,20,0,0,0,
  28,0,0,0,172,2,0,0,176,2,0,0,180,2,0,0,4,0,0,0,
  109,97,105,110,0,0,0,0,9,0,0,0,72,2,0,0,228,1,0,0,
  132,1,0,0,52,1,0,0,240,0,0,0,188,0,0,0,120,0,0,0,
  64,0,0,0,4,0,0,0,74,254,255,255,28,0,0,0,0,0,0,9,
  28,0,0,0,32,0,0,0,5,0,0,0,0,0,6,0,8,0,4,0,
  6,0,0,0,0,0,128,63,1,0,0,0,20,0,0,0,1,0,0,0,
  19,0,0,0,130,254,255,255,20,0,0,0,0,0,0,8,16,0,0,0,
  20,0,0,0,4,0,0,0,104,236,255,255,1,0,0,0,19,0,0,0,
  3,0,0,0,18,0,0,0,3,0,0,0,2,0,0,0,182,254,255,255,
  28,0,0,0,0,0,0,8,28,0,0,0,32,0,0,0,4,0,0,0,
  0,0,6,0,8,0,7,0,6,0,0,0,0,0,0,1,1,0,0,0,
  18,0,0,0,3,0,0,0,17,0,0,0,5,0,0,0,4,0,0,0,
  246,254,255,255,20,0,0,0,0,0,0,27,16,0,0,0,20,0,0,0,
  3,0,0,0,220,236,255,255,1,0,0,0,17,0,0,0,2,0,0,0,
  16,0,0,0,1,0,0,0,38,255,255,255,20,0,0,0,0,0,0,5,
  36,0,0,0,40,0,0,0,1,0,0,0,22,255,255,255,2,0,0,0,
  2,0,0,0,2,0,0,0,2,0,0,0,0,0,0,1,1,0,0,0,
  16,0,0,0,1,0,0,0,15,0,0,0,6,255,255,255,28,0,0,0,
  0,0,0,1,40,0,0,0,44,0,0,0,12,0,20,0,19,0,12,0,
  8,0,7,0,12,0,0,0,0,0,0,1,1,0,0,0,1,0,0,0,
  0,0,0,1,1,0,0,0,15,0,0,0,3,0,0,0,14,0,0,0,
  7,0,0,0,6,0,0,0,178,255,255,255,32,0,0,0,0,0,0,2,
  40,0,0,0,44,0,0,0,2,0,0,0,12,0,16,0,0,0,12,0,
  8,0,4,0,12,0,0,0,1,0,0,0,1,0,0,0,1,0,0,0,
  1,0,0,0,14,0,0,0,3,0,0,0,13,0,0,0,9,0,0,0,
  8,0,0,0,0,0,14,0,26,0,20,0,16,0,12,0,11,0,4,0,
  14,0,0,0,36,0,0,0,0,0,0,5,52,0,0,0,56,0,0,0,
  1,0,0,0,0,0,14,0,24,0,23,0,16,0,12,0,8,0,4,0,
  14,0,0,0,2,0,0,0,2,0,0,0,2,0,0,0,2,0,0,0,
  0,0,0,1,1,0,0,0,13,0,0,0,1,0,0,0,12,0,0,0,
  0,0,14,0,20,0,0,0,16,0,12,0,11,0,4,0,14,0,0,0,
  28,0,0,0,0,0,0,1,36,0,0,0,40,0,0,0,12,0,16,0,
  0,0,12,0,8,0,7,0,12,0,0,0,0,0,0,1,1,0,0,0,
  1,0,0,0,1,0,0,0,12,0,0,0,3,0,0,0,0,0,0,0,
  11,0,0,0,10,0,0,0,1,0,0,0,20,0,0,0,1,0,0,0,
  0,0,0,0,21,0,0,0,208,17,0,0,72,17,0,0,180,16,0,0,
  64,16,0,0,196,15,0,0,88,15,0,0,100,13,0,0,104,11,0,0,
  44,10,0,0,200,8,0,0,156,7,0,0,112,6,0,0,76,5,0,0,
  184,4,0,0,12,4,0,0,240,2,0,0,92,2,0,0,208,1,0,0,
  36,1,0,0,128,0,0,0,4,0,0,0,154,238,255,255,0,0,0,1,
  24,0,0,0,32,0,0,0,60,0,0,0,21,0,0,0,0,0,0,9,
  80,0,0,0,2,0,0,0,255,255,255,255,2,0,0,0,124,238,255,255,
  8,0,0,0,16,0,0,0,1,0,0,0,128,255,255,255,255,255,255,255,
  1,0,0,0,0,0,128,59,25,0,0,0,83,116,97,116,101,102,117,108,
  80,97,114,116,105,116,105,111,110,101,100,67,97,108,108,58,48,0,0,0,
  2,0,0,0,1,0,0,0,2,0,0,0,18,239,255,255,0,0,0,1,
  24,0,0,0,32,0,0,0,60,0,0,0,20,0,0,0,0,0,0,9,
  120,0,0,0,2,0,0,0,255,255,255,255,2,0,0,0,244,238,255,255,
  8,0,0,0,16,0,0,0,1,0,0,0,46,0,0,0,0,0,0,0,
  1,0,0,0,95,89,47,59,64,0,0,0,109,111,100,101,108,95,101,120,
  105,116,49,47,101,120,105,116,49,95,111,117,116,112,117,116,47,77,97,116,
  77,117,108,59,109,111,100,101,108,95,101,120,105,116,49,47,101,120,105,116,
  49,95,111,117,116,112,117,116,47,66,105,97,115,65,100,100,0,0,0,0,
  2,0,0,0,1,0,0,0,2,0,0,0,178,239,255,255,0,0,0,1,
  24,0,0,0,32,0,0,0,60,0,0,0,19,0,0,0,0,0,0,9,
  128,0,0,0,2,0,0,0,255,255,255,255,32,0,0,0,148,239,255,255,
  8,0,0,0,16,0,0,0,1,0,0,0,128,255,255,255,255,255,255,255,
  1,0,0,0,226,126,39,59,73,0,0,0,109,111,100,101,108,95,101,120,
  105,116,49,47,100,101,110,115,101,47,77,97,116,77,117,108,59,109,111,100,
  101,108,95,101,120,105,116,49,47,100,101,110,115,101,47,82,101,108,117,59,
  109,111,100,101,108,95,101,120,105,116,49,47,100,101,110,115,101,47,66,105,
  97,115,65,100,100,0,0,0,2,0,0,0,1,0,0,0,32,0,0,0,
  90,240,255,255,0,0,0,1,24,0,0,0,32,0,0,0,60,0,0,0,
  18,0,0,0,0,0,0,9,96,0,0,0,2,0,0,0,255,255,255,255,
  32,0,0,0,60,240,255,255,8,0,0,0,16,0,0,0,1,0,0,0,
  128,255,255,255,255,255,255,255,1,0,0,0,164,30,42,59,41,0,0,0,
  109,111,100,101,108,95,101,120,105,116,49,47,103,108,111,98,97,108,95,97,
  118,101,114,97,103,101,95,112,111,111,108,105,110,103,50,100,47,77,101,97,
  110,0,0,0,2,0,0,0,1,0,0,0,32,0,0,0,226,240,255,255,
  0,0,0,1,24,0,0,0,40,0,0,0,68,0,0,0,17,0,0,0,
  0,0,0,9,96,0,0,0,4,0,0,0,255,255,255,255,16,0,0,0,
  16,0,0,0,32,0,0,0,204,240,255,255,8,0,0,0,16,0,0,0,
  1,0,0,0,128,255,255,255,255,255,255,255,1,0,0,0,134,27,92,59,
  35,0,0,0,109,111,100,101,108,95,101,120,105,116,49,47,109,97,120,95,
  112,111,111,108,105,110,103,50,100,95,49,47,77,97,120,80,111,111,108,0,
  4,0,0,0,1,0,0,0,16,0,0,0,16,0,0,0,32,0,0,0,
  114,241,255,255,0,0,0,1,24,0,0,0,40,0,0,0,68,0,0,0,
  16,0,0,0,0,0,0,9,232,0,0,0,4,0,0,0,255,255,255,255,
  32,0,0,0,32,0,0,0,32,0,0,0,92,241,255,255,8,0,0,0,
  16,0,0,0,1,0,0,0,128,255,255,255,255,255,255,255,1,0,0,0,
  134,27,92,59,168,0,0,0,109,111,100,101,108,95,101,120,105,116,49,47,
  115,101,112,97,114,97,98,108,101,95,99,111,110,118,50,100,47,82,101,108,
  117,59,109,111,100,101,108,95,101,120,105,116,49,47,115,101,112,97,114,97,
  98,108,101,95,99,111,110,118,50,100,47,66,105,97,115,65,100,100,59,109,
  111,100,101,108,95,101,120,105,116,49,47,115,101,112,97,114,97,98,108,101,
  95,99,111,110,118,50,100,47,115,101,112,97,114,97,98,108,101,95,99,111,
  110,118,50,100,59,109,111,100,101,108,95,101,120,105,116,49,47,115,101,112,
  97,114,97,98,108,101,95,99,111,110,118,50,100,47,66,105,97,115,65,100,
  100,47,82,101,97,100,86,97,114,105,97,98,108,101,79,112,0,0,0,0,
  4,0,0,0,1,0,0,0,32,0,0,0,32,0,0,0,32,0,0,0,
  138,242,255,255,0,0,0,1,24,0,0,0,40,0,0,0,68,0,0,0,
  15,0,0,0,0,0,0,9,120,0,0,0,4,0,0,0,255,255,255,255,
  32,0,0,0,32,0,0,0,16,0,0,0,116,242,255,255,8,0,0,0,
  16,0,0,0,1,0,0,0,1,0,0,0,0,0,0,0,1,0,0,0,
  188,176,1,60,56,0,0,0,109,111,100,101,108,95,101,120,105,116,49,47,
  115,101,112,97,114,97,98,108,101,95,99,111,110,118,50,100,47,115,101,112,
  97,114,97,98,108,101,95,99,111,110,118,50,100,47,100,101,112,116,104,119,
  105,115,101,50,0,0,0,0,4,0,0,0,1,0,0,0,32,0,0,0,
  32,0,0,0,16,0,0,0,50,243,255,255,0,0,0,1,24,0,0,0,
  40,0,0,0,68,0,0,0,14,0,0,0,0,0,0,9,96,0,0,0,
  4,0,0,0,255,255,255,255,32,0,0,0,32,0,0,0,16,0,0,0,
  28,243,255,255,8,0,0,0,16,0,0,0,1,0,0,0,128,255,255,255,
  255,255,255,255,1,0,0,0,230,183,120,59,33,0,0,0,109,111,100,101,
  108,95,101,120,105,116,49,47,109,97,120,95,112,111,111,108,105,110,103,50,
  100,47,77,97,120,80,111,111,108,0,0,0,4,0,0,0,1,0,0,0,
  32,0,0,0,32,0,0,0,16,0,0,0,194,243,255,255,0,0,0,1,
  24,0,0,0,40,0,0,0,72,0,0,0,13,0,0,0,0,0,0,9,
  240,0,0,0,4,0,0,0,255,255,255,255,64,0,0,0,64,0,0,0,
  16,0,0,0,172,243,255,255,8,0,0,0,20,0,0,0,1,0,0,0,
  128,255,255,255,255,255,255,255,0,0,0,0,1,0,0,0,230,183,120,59,
  174,0,0,0,109,111,100,101,108,95,101,120,105,116,49,47,99,111,110,118,
  50,100,47,82,101,108,117,59,109,111,100,101,108,95,101,120,105,116,49,47,
  99,111,110,118,50,100,47,66,105,97,115,65,100,100,59,109,111,100,101,108,
  95,101,120,105,116,49,47,115,101,112,97,114,97,98,108,101,95,99,111,110,
  118,50,100,47,115,101,112,97,114,97,98,108,101,95,99,111,110,118,50,100,
  47,100,101,112,116,104,119,105,115,101,59,109,111,100,101,108,95,101,120,105,
  116,49,47,99,111,110,118,50,100,47,67,111,110,118,50,68,59,109,111,100,
  101,108,95,101,120,105,116,49,47,99,111,110,118,50,100,47,66,105,97,115,
  65,100,100,47,82,101,97,100,86,97,114,105,97,98,108,101,79,112,0,0,
  4,0,0,0,1,0,0,0,64,0,0,0,64,0,0,0,16,0,0,0,
  102,245,255,255,0,0,0,1,20,0,0,0,232,0,0,0,12,0,0,0,
  0,0,0,9,252,0,0,0,180,244,255,255,8,0,0,0,140,0,0,0,
  16,0,0,0,0,0,0,0,0,0,0,0,0,0,0,0,0,0,0,0,
  0,0,0,0,0,0,0,0,0,0,0,0,0,0,0,0,0,0,0,0,
  0,0,0,0,0,0,0,0,0,0,0,0,0,0,0,0,0,0,0,0,
  0,0,0,0,0,0,0,0,0,0,0,0,0,0,0,0,0,0,0,0,
  0,0,0,0,0,0,0,0,0,0,0,0,0,0,0,0,0,0,0,0,
  0,0,0,0,0,0,0,0,0,0,0,0,0,0,0,0,0,0,0,0,
  0,0,0,0,0,0,0,0,0,0,0,0,0,0,0,0,16,0,0,0,
  34,94,206,58,181,102,173,58,42,178,246,58,48,1,0,59,243,225,186,58,
  0,226,254,58,23,52,226,58,76,110,222,58,97,202,244,58,219,154,226,58,
  218,87,7,59,81,209,144,58,161,123,217,58,83,51,208,58,45,141,13,59,
  137,58,2,59,25,0,0,0,109,111,100,101,108,95,101,120,105,116,49,47,
  99,111,110,118,50,100,47,67,111,110,118,50,68,0,0,0,4,0,0,0,
  16,0,0,0,3,0,0,0,3,0,0,0,1,0,0,0,142,246,255,255,
  0,0,0,1,20,0,0,0,228,0,0,0,11,0,0,0,0,0,0,2,
  8,1,0,0,220,245,255,255,8,0,0,0,136,0,0,0,16,0,0,0,
  0,0,0,0,0,0,0,0,0,0,0,0,0,0,0,0,0,0,0,0,
  0,0,0,0,0,0,0,0,0,0,0,0,0,0,0,0,0,0,0,0,
  0,0,0,0,0,0,0,0,0,0,0,0,0,0,0,0,0,0,0,0,
  0,0,0,0,0,0,0,0,0,0,0,0,0,0,0,0,0,0,0,0,
  0,0,0,0,0,0,0,0,0,0,0,0,0,0,0,0,0,0,0,0,
  0,0,0,0,0,0,0,0,0,0,0,0,0,0,0,0,0,0,0,0,
  0,0,0,0,0,0,0,0,16,0,0,0,80,45,207,54,202,20,174,54,
  213,169,247,54,178,129,0,55,145,157,187,54,227,225,255,54,47,23,227,54,
  154,77,223,54,34,192,245,54,90,126,227,54,186,223,7,55,180,98,145,54,
  248,85,218,54,88,4,209,54,73,27,14,55,71,189,2,55,41,0,0,0,
  109,111,100,101,108,95,101,120,105,116,49,47,99,111,110,118,50,100,47,66,
  105,97,115,65,100,100,47,82,101,97,100,86,97,114,105,97,98,108,101,79,
  112,0,0,0,1,0,0,0,16,0,0,0,182,247,255,255,0,0,0,1,
  40,0,0,0,0,1,0,0,10,0,0,0,0,0,0,9,52,1,0,0,
  0,0,18,0,16,0,0,0,0,0,12,0,8,0,0,0,0,0,4,0,
  18,0,0,0,3,0,0,0,8,0,0,0,140,0,0,0,16,0,0,0,
  0,0,0,0,0,0,0,0,0,0,0,0,0,0,0,0,0,0,0,0,
  0,0,0,0,0,0,0,0,0,0,0,0,0,0,0,0,0,0,0,0,
  0,0,0,0,0,0,0,0,0,0,0,0,0,0,0,0,0,0,0,0,
  0,0,0,0,0,0,0,0,0,0,0,0,0,0,0,0,0,0,0,0,
  0,0,0,0,0,0,0,0,0,0,0,0,0,0,0,0,0,0,0,0,
  0,0,0,0,0,0,0,0,0,0,0,0,0,0,0,0,0,0,0,0,
  0,0,0,0,0,0,0,0,0,0,0,0,16,0,0,0,133,143,0,59,
  115,27,8,59,229,22,14,59,239,15,18,59,20,247,53,59,77,68,10,59,
  90,201,232,58,237,41,23,59,250,29,86,59,135,210,76,59,229,101,70,59,
  116,130,29,59,178,239,11,59,67,125,248,58,80,155,69,59,154,18,106,59,
  56,0,0,0,109,111,100,101,108,95,101,120,105,116,49,47,115,101,112,97,
  114,97,98,108,101,95,99,111,110,118,50,100,47,115,101,112,97,114,97,98,
  108,101,95,99,111,110,118,50,100,47,100,101,112,116,104,119,105,115,101,49,
  0,0,0,0,4,0,0,0,1,0,0,0,3,0,0,0,3,0,0,0,
  16,0,0,0,22,249,255,255,0,0,0,1,20,0,0,0,232,0,0,0,
  9,0,0,0,0,0,0,2,24,1,0,0,100,248,255,255,8,0,0,0,
  140,0,0,0,16,0,0,0,0,0,0,0,0,0,0,0,0,0,0,0,
  0,0,0,0,0,0,0,0,0,0,0,0,0,0,0,0,0,0,0,0,
  0,0,0,0,0,0,0,0,0,0,0,0,0,0,0,0,0,0,0,0,
  0,0,0,0,0,0,0,0,0,0,0,0,0,0,0,0,0,0,0,0,
  0,0,0,0,0,0,0,0,0,0,0,0,0,0,0,0,0,0,0,0,
  0,0,0,0,0,0,0,0,0,0,0,0,0,0,0,0,0,0,0,0,
  0,0,0,0,0,0,0,0,0,0,0,0,0,0,0,0,0,0,0,0,
  16,0,0,0,198,206,249,54,93,60,4,55,64,12,10,55,92,232,13,55,
  18,202,48,55,126,85,6,55,72,42,226,54,52,221,18,55,218,6,80,55,
  21,255,70,55,59,193,64,55,134,7,25,55,187,244,7,55,218,107,241,54,
  105,252,63,55,43,106,99,55,55,0,0,0,109,111,100,101,108,95,101,120,
  105,116,49,47,115,101,112,97,114,97,98,108,101,95,99,111,110,118,50,100,
  47,115,101,112,97,114,97,98,108,101,95,99,111,110,118,50,100,47,100,101,
  112,116,104,119,105,115,101,0,1,0,0,0,16,0,0,0,78,250,255,255,
  0,0,0,1,20,0,0,0,164,1,0,0,8,0,0,0,0,0,0,9,
  204,1,0,0,156,249,255,255,8,0,0,0,8,1,0,0,32,0,0,0,
  0,0,0,0,0,0,0,0,0,0,0,0,0,0,0,0,0,0,0,0,
  0,0,0,0,0,0,0,0,0,0,0,0,0,0,0,0,0,0,0,0,
  0,0,0,0,0,0,0,0,0,0,0,0,0,0,0,0,0,0,0,0,
  0,0,0,0,0,0,0,0,0,0,0,0,0,0,0,0,0,0,0,0,
  0,0,0,0,0,0,0,0,0,0,0,0,0,0,0,0,0,0,0,0,
  0,0,0,0,0,0,0,0,0,0,0,0,0,0,0,0,0,0,0,0,
  0,0,0,0,0,0,0,0,0,0,0,0,0,0,0,0,0,0,0,0,
  0,0,0,0,0,0,0,0,0,0,0,0,0,0,0,0,0,0,0,0,
  0,0,0,0,0,0,0,0,0,0,0,0,0,0,0,0,0,0,0,0,
  0,0,0,0,0,0,0,0,0,0,0,0,0,0,0,0,0,0,0,0,
  0,0,0,0,0,0,0,0,0,0,0,0,0,0,0,0,0,0,0,0,
  0,0,0,0,0,0,0,0,0,0,0,0,0,0,0,0,0,0,0,0,
  0,0,0,0,0,0,0,0,0,0,0,0,0,0,0,0,32,0,0,0,
  237,11,96,59,143,199,26,59,249,192,140,59,10,32,50,59,144,158,99,59,
  158,5,57,59,193,39,129,59,195,118,111,59,242,168,55,59,48,196,95,59,
  181,16,67,59,196,153,80,59,116,247,108,59,140,225,80,59,112,187,158,59,
  162,16,132,59,242,230,41,59,115,235,129,59,150,69,119,59,50,135,120,59,
  21,229,60,59,56,24,89,59,47,136,51,59,237,110,83,59,13,240,98,59,
  55,52,130,59,4,214,79,59,3,116,40,59,58,245,63,59,56,83,82,59,
  146,131,50,59,224,32,53,59,45,0,0,0,109,111,100,101,108,95,101,120,
  105,116,49,47,115,101,112,97,114,97,98,108,101,95,99,111,110,118,50,100,
  47,115,101,112,97,114,97,98,108,101,95,99,111,110,118,50,100,0,0,0,
  4,0,0,0,32,0,0,0,1,0,0,0,1,0,0,0,16,0,0,0,
  70,252,255,255,0,0,0,1,20,0,0,0,164,1,0,0,7,0,0,0,
  0,0,0,2,208,1,0,0,148,251,255,255,8,0,0,0,8,1,0,0,
  32,0,0,0,0,0,0,0,0,0,0,0,0,0,0,0,0,0,0,0,
  0,0,0,0,0,0,0,0,0,0,0,0,0,0,0,0,0,0,0,0,
  0,0,0,0,0,0,0,0,0,0,0,0,0,0,0,0,0,0,0,0,
  0,0,0,0,0,0,0,0,0,0,0,0,0,0,0,0,0,0,0,0,
  0,0,0,0,0,0,0,0,0,0,0,0,0,0,0,0,0,0,0,0,
  0,0,0,0,0,0,0,0,0,0,0,0,0,0,0,0,0,0,0,0,
  0,0,0,0,0,0,0,0,0,0,0,0,0,0,0,0,0,0,0,0,
  0,0,0,0,0,0,0,0,0,0,0,0,0,0,0,0,0,0,0,0,
  0,0,0,0,0,0,0,0,0,0,0,0,0,0,0,0,0,0,0,0,
  0,0,0,0,0,0,0,0,0,0,0,0,0,0,0,0,0,0,0,0,
  0,0,0,0,0,0,0,0,0,0,0,0,0,0,0,0,0,0,0,0,
  0,0,0,0,0,0,0,0,0,0,0,0,0,0,0,0,0,0,0,0,
  0,0,0,0,0,0,0,0,0,0,0,0,0,0,0,0,0,0,0,0,
  32,0,0,0,94,1,227,55,212,210,156,55,211,156,14,56,60,122,180,55,
  21,160,230,55,33,119,187,55,101,220,2,56,84,160,242,55,218,21,186,55,
  175,184,226,55,44,164,197,55,253,90,211,55,147,24,240,55,184,163,211,55,
  18,212,32,56,28,207,5,56,87,37,172,55,172,162,3,56,140,137,250,55,
  103,207,251,55,176,99,191,55,41,246,219,55,34,231,181,55,186,57,214,55,
  68,239,229,55,102,236,3,56,168,148,210,55,130,173,170,55,48,126,194,55,
  70,26,213,55,20,223,180,55,57,133,183,55,51,0,0,0,109,111,100,101,
  108,95,101,120,105,116,49,47,115,101,112,97,114,97,98,108,101,95,99,111,
  110,118,50,100,47,66,105,97,115,65,100,100,47,82,101,97,100,86,97,114,
  105,97,98,108,101,79,112,0,1,0,0,0,32,0,0,0,54,254,255,255,
  0,0,0,1,20,0,0,0,48,0,0,0,6,0,0,0,0,0,0,9,
  68,0,0,0,132,253,255,255,8,0,0,0,16,0,0,0,1,0,0,0,
  0,0,0,0,0,0,0,0,1,0,0,0,1,233,79,59,24,0,0,0,
  109,111,100,101,108,95,101,120,105,116,49,47,100,101,110,115,101,47,77,97,
  116,77,117,108,0,0,0,0,2,0,0,0,32,0,0,0,32,0,0,0,
  158,254,255,255,0,0,0,1,20,0,0,0,52,0,0,0,5,0,0,0,
  0,0,0,2,88,0,0,0,236,253,255,255,8,0,0,0,20,0,0,0,
  1,0,0,0,0,0,0,0,0,0,0,0,0,0,0,0,1,0,0,0,
  157,41,10,55,40,0,0,0,109,111,100,101,108,95,101,120,105,116,49,47,
  100,101,110,115,101,47,66,105,97,115,65,100,100,47,82,101,97,100,86,97,
  114,105,97,98,108,101,79,112,0,0,0,0,1,0,0,0,32,0,0,0,
  22,255,255,255,0,0,0,1,20,0,0,0,52,0,0,0,4,0,0,0,
  0,0,0,9,76,0,0,0,100,254,255,255,8,0,0,0,20,0,0,0,
  1,0,0,0,0,0,0,0,0,0,0,0,0,0,0,0,1,0,0,0,
  94,108,137,59,31,0,0,0,109,111,100,101,108,95,101,120,105,116,49,47,
  101,120,105,116,49,95,111,117,116,112,117,116,47,77,97,116,77,117,108,0,
  2,0,0,0,2,0,0,0,32,0,0,0,134,255,255,255,0,0,0,1,
  20,0,0,0,48,0,0,0,3,0,0,0,0,0,0,2,88,0,0,0,
  212,254,255,255,8,0,0,0,16,0,0,0,1,0,0,0,0,0,0,0,
  0,0,0,0,1,0,0,0,156,211,51,55,47,0,0,0,109,111,100,101,
  108,95,101,120,105,116,49,47,101,120,105,116,49,95,111,117,116,112,117,116,
  47,66,105,97,115,65,100,100,47,82,101,97,100,86,97,114,105,97,98,108,
  101,79,112,0,1,0,0,0,2,0,0,0,0,0,22,0,28,0,24,0,
  23,0,16,0,12,0,8,0,0,0,0,0,0,0,7,0,22,0,0,0,
  0,0,0,1,24,0,0,0,24,0,0,0,2,0,0,0,0,0,0,2,
  76,0,0,0,4,0,4,0,4,0,0,0,59,0,0,0,109,111,100,101,
  108,95,101,120,105,116,49,47,103,108,111,98,97,108,95,97,118,101,114,97,
  103,101,95,112,111,111,108,105,110,103,50,100,47,77,101,97,110,47,114,101,
  100,117,99,116,105,111,110,95,105,110,100,105,99,101,115,0,1,0,0,0,
  2,0,0,0,0,0,22,0,32,0,28,0,27,0,20,0,16,0,12,0,
  0,0,0,0,8,0,7,0,22,0,0,0,0,0,0,1,24,0,0,0,
  52,0,0,0,84,0,0,0,1,0,0,0,0,0,0,9,104,0,0,0,
  4,0,0,0,255,255,255,255,64,0,0,0,64,0,0,0,1,0,0,0,
  12,0,12,0,0,0,0,0,8,0,4,0,12,0,0,0,8,0,0,0,
  20,0,0,0,1,0,0,0,128,255,255,255,255,255,255,255,0,0,0,0,
  1,0,0,0,129,128,128,59,25,0,0,0,115,101,114,118,105,110,103,95,
  100,101,102,97,117,108,116,95,105,110,112,117,116,95,49,58,48,0,0,0,
  4,0,0,0,1,0,0,0,64,0,0,0,64,0,0,0,1,0,0,0,
  6,0,0,0,116,0,0,0,84,0,0,0,64,0,0,0,44,0,0,0,
  24,0,0,0,4,0,0,0,176,255,255,255,25,0,0,0,2,0,0,0,
  0,0,0,25,192,255,255,255,9,0,0,0,4,0,0,0,0,0,0,9,
  208,255,255,255,40,0,0,0,2,0,0,0,0,0,0,40,224,255,255,255,
  4,0,0,0,3,0,0,0,0,0,0,4,240,255,255,255,17,0,0,0,
  2,0,0,0,0,0,0,17,12,0,16,0,15,0,0,0,8,0,4,0,
  12,0,0,0,3,0,0,0,3,0,0,0,0,0,0,3
};
const int g_model_exit1_int8_len = 8576;
